00010011 00011010 10110010 
10000111 10110101 11001101 
00011100 11111110 00100001 

11111000 11010001 11111000 
11110011 10010101 01110000 
00111100 11010001 00110000 

10100111 01110101 00100001 
11111000 00111011 11110101 
10011101 01000000 10111010 

00111101 00100110 11001010 
10000010 01011110 10110111 
11110101 01001110 00111101 

11000001 01100111 00011101 
11110100 01000101 10100001 
10110100 10011011 11100110 

01101100 11110010 10011100 
01110011 00111001 01110101 
11101000 01011100 01000110 

11100010 11101000 10100001 
01011100 10100010 10100011 
10010110 01010010 11010100 

11100001 01111000 10010011 
10001000 10101101 01110110 
00001010 00000111 11001111 


00010011 00011010 10110010 
10000111 10110101 11001101 
00011100 11111110 00100001 

11111000 11010001 11111000 
11110011 10010101 01110000 
00111100 11010001 00110000 

10100111 01110101 00100001 
11111000 00111011 11110101 
10011101 01000000 10111010 

00111101 00100110 11001010 
10000010 01011110 10110111 
11110101 01001110 00111101 

11000001 01100111 00011101 
11110100 01000101 10100001 
10110100 10011011 11100110 

01101100 11110010 10011100 
01110011 00111001 01110101 
11101000 01011100 01000110 

11100010 11101000 10100001 
01011100 10100010 10100011 
10010110 01010010 11010100 

11100001 01111000 10010011 
10001000 10101101 01110110 
00001010 00000111 11001111 


00010011 00011010 10110010 
10000111 10110101 11001101 
00011100 11111110 00100001 

11111000 11010001 11111000 
11110011 10010101 01110000 
00111100 11010001 00110000 

10100111 01110101 00100001 
11111000 00111011 11110101 
10011101 01000000 10111010 

00111101 00100110 11001010 
10000010 01011110 10110111 
11110101 01001110 00111101 

11000001 01100111 00011101 
11110100 01000101 10100001 
10110100 10011011 11100110 

01101100 11110010 10011100 
01110011 00111001 01110101 
11101000 01011100 01000110 

11100010 11101000 10100001 
01011100 10100010 10100011 
10010110 01010010 11010100 

11100001 01111000 10010011 
10001000 10101101 01110110 
00001010 00000111 11001111 


00010011 00011010 10110010 
10000111 10110101 11001101 
00011100 11111110 00100001 

11111000 11010001 11111000 
11110011 10010101 01110000 
00111100 11010001 00110000 

10100111 01110101 00100001 
11111000 00111011 11110101 
10011101 01000000 10111010 

00111101 00100110 11001010 
10000010 01011110 10110111 
11110101 01001110 00111101 

11000001 01100111 00011101 
11110100 01000101 10100001 
10110100 10011011 11100110 

01101100 11110010 10011100 
01110011 00111001 01110101 
11101000 01011100 01000110 

11100010 11101000 10100001 
01011100 10100010 10100011 
10010110 01010010 11010100 

11100001 01111000 10010011 
10001000 10101101 01110110 
00001010 00000111 11001111 



00010011 00011010 10110010 
10000111 10110101 11001101 
00011100 11111110 00100001 

11111000 11010001 11111000 
11110011 10010101 01110000 
00111100 11010001 00110000 

10100111 01110101 00100001 
11111000 00111011 11110101 
10011101 01000000 10111010 

00111101 00100110 11001010 
10000010 01011110 10110111 
11110101 01001110 00111101 

11000001 01100111 00011101 
11110100 01000101 10100001 
10110100 10011011 11100110 

01101100 11110010 10011100 
01110011 00111001 01110101 
11101000 01011100 01000110 

11100010 11101000 10100001 
01011100 10100010 10100011 
10010110 01010010 11010100 

11100001 01111000 10010011 
10001000 10101101 01110110 
00001010 00000111 11001111 


00010011 00011010 10110010 
10000111 10110101 11001101 
00011100 11111110 00100001 

11111000 11010001 11111000 
11110011 10010101 01110000 
00111100 11010001 00110000 

10100111 01110101 00100001 
11111000 00111011 11110101 
10011101 01000000 10111010 

00111101 00100110 11001010 
10000010 01011110 10110111 
11110101 01001110 00111101 

11000001 01100111 00011101 
11110100 01000101 10100001 
10110100 10011011 11100110 

01101100 11110010 10011100 
01110011 00111001 01110101 
11101000 01011100 01000110 

11100010 11101000 10100001 
01011100 10100010 10100011 
10010110 01010010 11010100 

11100001 01111000 10010011 
10001000 10101101 01110110 
00001010 00000111 11001111 


00010011 00011010 10110010 
10000111 10110101 11001101 
00011100 11111110 00100001 

11111000 11010001 11111000 
11110011 10010101 01110000 
00111100 11010001 00110000 

10100111 01110101 00100001 
11111000 00111011 11110101 
10011101 01000000 10111010 

00111101 00100110 11001010 
10000010 01011110 10110111 
11110101 01001110 00111101 

11000001 01100111 00011101 
11110100 01000101 10100001 
10110100 10011011 11100110 

01101100 11110010 10011100 
01110011 00111001 01110101 
11101000 01011100 01000110 

11100010 11101000 10100001 
01011100 10100010 10100011 
10010110 01010010 11010100 

11100001 01111000 10010011 
10001000 10101101 01110110 
00001010 00000111 11001111 


00010011 00011010 10110010 
10000111 10110101 11001101 
00011100 11111110 00100001 

11111000 11010001 11111000 
11110011 10010101 01110000 
00111100 11010001 00110000 

10100111 01110101 00100001 
11111000 00111011 11110101 
10011101 01000000 10111010 

00111101 00100110 11001010 
10000010 01011110 10110111 
11110101 01001110 00111101 

11000001 01100111 00011101 
11110100 01000101 10100001 
10110100 10011011 11100110 

01101100 11110010 10011100 
01110011 00111001 01110101 
11101000 01011100 01000110 

11100010 11101000 10100001 
01011100 10100010 10100011 
10010110 01010010 11010100 

11100001 01111000 10010011 
10001000 10101101 01110110 
00001010 00000111 11001111 



00010011 00011010 10110010 
10000111 10110101 11001101 
00011100 11111110 00100001 

11111000 11010001 11111000 
11110011 10010101 01110000 
00111100 11010001 00110000 

10100111 01110101 00100001 
11111000 00111011 11110101 
10011101 01000000 10111010 

00111101 00100110 11001010 
10000010 01011110 10110111 
11110101 01001110 00111101 

11000001 01100111 00011101 
11110100 01000101 10100001 
10110100 10011011 11100110 

01101100 11110010 10011100 
01110011 00111001 01110101 
11101000 01011100 01000110 

11100010 11101000 10100001 
01011100 10100010 10100011 
10010110 01010010 11010100 

11100001 01111000 10010011 
10001000 10101101 01110110 
00001010 00000111 11001111 


00010011 00011010 10110010 
10000111 10110101 11001101 
00011100 11111110 00100001 

11111000 11010001 11111000 
11110011 10010101 01110000 
00111100 11010001 00110000 

10100111 01110101 00100001 
11111000 00111011 11110101 
10011101 01000000 10111010 

00111101 00100110 11001010 
10000010 01011110 10110111 
11110101 01001110 00111101 

11000001 01100111 00011101 
11110100 01000101 10100001 
10110100 10011011 11100110 

01101100 11110010 10011100 
01110011 00111001 01110101 
11101000 01011100 01000110 

11100010 11101000 10100001 
01011100 10100010 10100011 
10010110 01010010 11010100 

11100001 01111000 10010011 
10001000 10101101 01110110 
00001010 00000111 11001111 


00010011 00011010 10110010 
10000111 10110101 11001101 
00011100 11111110 00100001 

11111000 11010001 11111000 
11110011 10010101 01110000 
00111100 11010001 00110000 

10100111 01110101 00100001 
11111000 00111011 11110101 
10011101 01000000 10111010 

00111101 00100110 11001010 
10000010 01011110 10110111 
11110101 01001110 00111101 

11000001 01100111 00011101 
11110100 01000101 10100001 
10110100 10011011 11100110 

01101100 11110010 10011100 
01110011 00111001 01110101 
11101000 01011100 01000110 

11100010 11101000 10100001 
01011100 10100010 10100011 
10010110 01010010 11010100 

11100001 01111000 10010011 
10001000 10101101 01110110 
00001010 00000111 11001111 


00010011 00011010 10110010 
10000111 10110101 11001101 
00011100 11111110 00100001 

11111000 11010001 11111000 
11110011 10010101 01110000 
00111100 11010001 00110000 

10100111 01110101 00100001 
11111000 00111011 11110101 
10011101 01000000 10111010 

00111101 00100110 11001010 
10000010 01011110 10110111 
11110101 01001110 00111101 

11000001 01100111 00011101 
11110100 01000101 10100001 
10110100 10011011 11100110 

01101100 11110010 10011100 
01110011 00111001 01110101 
11101000 01011100 01000110 

11100010 11101000 10100001 
01011100 10100010 10100011 
10010110 01010010 11010100 

11100001 01111000 10010011 
10001000 10101101 01110110 
00001010 00000111 11001111 



00010011 00011010 10110010 
10000111 10110101 11001101 
00011100 11111110 00100001 

11111000 11010001 11111000 
11110011 10010101 01110000 
00111100 11010001 00110000 

10100111 01110101 00100001 
11111000 00111011 11110101 
10011101 01000000 10111010 

00111101 00100110 11001010 
10000010 01011110 10110111 
11110101 01001110 00111101 

11000001 01100111 00011101 
11110100 01000101 10100001 
10110100 10011011 11100110 

01101100 11110010 10011100 
01110011 00111001 01110101 
11101000 01011100 01000110 

11100010 11101000 10100001 
01011100 10100010 10100011 
10010110 01010010 11010100 

11100001 01111000 10010011 
10001000 10101101 01110110 
00001010 00000111 11001111 


00010011 00011010 10110010 
10000111 10110101 11001101 
00011100 11111110 00100001 

11111000 11010001 11111000 
11110011 10010101 01110000 
00111100 11010001 00110000 

10100111 01110101 00100001 
11111000 00111011 11110101 
10011101 01000000 10111010 

00111101 00100110 11001010 
10000010 01011110 10110111 
11110101 01001110 00111101 

11000001 01100111 00011101 
11110100 01000101 10100001 
10110100 10011011 11100110 

01101100 11110010 10011100 
01110011 00111001 01110101 
11101000 01011100 01000110 

11100010 11101000 10100001 
01011100 10100010 10100011 
10010110 01010010 11010100 

11100001 01111000 10010011 
10001000 10101101 01110110 
00001010 00000111 11001111 


00010011 00011010 10110010 
10000111 10110101 11001101 
00011100 11111110 00100001 

11111000 11010001 11111000 
11110011 10010101 01110000 
00111100 11010001 00110000 

10100111 01110101 00100001 
11111000 00111011 11110101 
10011101 01000000 10111010 

00111101 00100110 11001010 
10000010 01011110 10110111 
11110101 01001110 00111101 

11000001 01100111 00011101 
11110100 01000101 10100001 
10110100 10011011 11100110 

01101100 11110010 10011100 
01110011 00111001 01110101 
11101000 01011100 01000110 

11100010 11101000 10100001 
01011100 10100010 10100011 
10010110 01010010 11010100 

11100001 01111000 10010011 
10001000 10101101 01110110 
00001010 00000111 11001111 


00010011 00011010 10110010 
10000111 10110101 11001101 
00011100 11111110 00100001 

11111000 11010001 11111000 
11110011 10010101 01110000 
00111100 11010001 00110000 

10100111 01110101 00100001 
11111000 00111011 11110101 
10011101 01000000 10111010 

00111101 00100110 11001010 
10000010 01011110 10110111 
11110101 01001110 00111101 

11000001 01100111 00011101 
11110100 01000101 10100001 
10110100 10011011 11100110 

01101100 11110010 10011100 
01110011 00111001 01110101 
11101000 01011100 01000110 

11100010 11101000 10100001 
01011100 10100010 10100011 
10010110 01010010 11010100 

11100001 01111000 10010011 
10001000 10101101 01110110 
00001010 00000111 11001111 



00010011 00011010 10110010 
10000111 10110101 11001101 
00011100 11111110 00100001 

11111000 11010001 11111000 
11110011 10010101 01110000 
00111100 11010001 00110000 

10100111 01110101 00100001 
11111000 00111011 11110101 
10011101 01000000 10111010 

00111101 00100110 11001010 
10000010 01011110 10110111 
11110101 01001110 00111101 

11000001 01100111 00011101 
11110100 01000101 10100001 
10110100 10011011 11100110 

01101100 11110010 10011100 
01110011 00111001 01110101 
11101000 01011100 01000110 

11100010 11101000 10100001 
01011100 10100010 10100011 
10010110 01010010 11010100 

11100001 01111000 10010011 
10001000 10101101 01110110 
00001010 00000111 11001111 


00010011 00011010 10110010 
10000111 10110101 11001101 
00011100 11111110 00100001 

11111000 11010001 11111000 
11110011 10010101 01110000 
00111100 11010001 00110000 

10100111 01110101 00100001 
11111000 00111011 11110101 
10011101 01000000 10111010 

00111101 00100110 11001010 
10000010 01011110 10110111 
11110101 01001110 00111101 

11000001 01100111 00011101 
11110100 01000101 10100001 
10110100 10011011 11100110 

01101100 11110010 10011100 
01110011 00111001 01110101 
11101000 01011100 01000110 

11100010 11101000 10100001 
01011100 10100010 10100011 
10010110 01010010 11010100 

11100001 01111000 10010011 
10001000 10101101 01110110 
00001010 00000111 11001111 


00010011 00011010 10110010 
10000111 10110101 11001101 
00011100 11111110 00100001 

11111000 11010001 11111000 
11110011 10010101 01110000 
00111100 11010001 00110000 

10100111 01110101 00100001 
11111000 00111011 11110101 
10011101 01000000 10111010 

00111101 00100110 11001010 
10000010 01011110 10110111 
11110101 01001110 00111101 

11000001 01100111 00011101 
11110100 01000101 10100001 
10110100 10011011 11100110 

01101100 11110010 10011100 
01110011 00111001 01110101 
11101000 01011100 01000110 

11100010 11101000 10100001 
01011100 10100010 10100011 
10010110 01010010 11010100 

11100001 01111000 10010011 
10001000 10101101 01110110 
00001010 00000111 11001111 


00010011 00011010 10110010 
10000111 10110101 11001101 
00011100 11111110 00100001 

11111000 11010001 11111000 
11110011 10010101 01110000 
00111100 11010001 00110000 

10100111 01110101 00100001 
11111000 00111011 11110101 
10011101 01000000 10111010 

00111101 00100110 11001010 
10000010 01011110 10110111 
11110101 01001110 00111101 

11000001 01100111 00011101 
11110100 01000101 10100001 
10110100 10011011 11100110 

01101100 11110010 10011100 
01110011 00111001 01110101 
11101000 01011100 01000110 

11100010 11101000 10100001 
01011100 10100010 10100011 
10010110 01010010 11010100 

11100001 01111000 10010011 
10001000 10101101 01110110 
00001010 00000111 11001111 



00010011 00011010 10110010 
10000111 10110101 11001101 
00011100 11111110 00100001 

11111000 11010001 11111000 
11110011 10010101 01110000 
00111100 11010001 00110000 

10100111 01110101 00100001 
11111000 00111011 11110101 
10011101 01000000 10111010 

00111101 00100110 11001010 
10000010 01011110 10110111 
11110101 01001110 00111101 

11000001 01100111 00011101 
11110100 01000101 10100001 
10110100 10011011 11100110 

01101100 11110010 10011100 
01110011 00111001 01110101 
11101000 01011100 01000110 

11100010 11101000 10100001 
01011100 10100010 10100011 
10010110 01010010 11010100 

11100001 01111000 10010011 
10001000 10101101 01110110 
00001010 00000111 11001111 


00010011 00011010 10110010 
10000111 10110101 11001101 
00011100 11111110 00100001 

11111000 11010001 11111000 
11110011 10010101 01110000 
00111100 11010001 00110000 

10100111 01110101 00100001 
11111000 00111011 11110101 
10011101 01000000 10111010 

00111101 00100110 11001010 
10000010 01011110 10110111 
11110101 01001110 00111101 

11000001 01100111 00011101 
11110100 01000101 10100001 
10110100 10011011 11100110 

01101100 11110010 10011100 
01110011 00111001 01110101 
11101000 01011100 01000110 

11100010 11101000 10100001 
01011100 10100010 10100011 
10010110 01010010 11010100 

11100001 01111000 10010011 
10001000 10101101 01110110 
00001010 00000111 11001111 


00010011 00011010 10110010 
10000111 10110101 11001101 
00011100 11111110 00100001 

11111000 11010001 11111000 
11110011 10010101 01110000 
00111100 11010001 00110000 

10100111 01110101 00100001 
11111000 00111011 11110101 
10011101 01000000 10111010 

00111101 00100110 11001010 
10000010 01011110 10110111 
11110101 01001110 00111101 

11000001 01100111 00011101 
11110100 01000101 10100001 
10110100 10011011 11100110 

01101100 11110010 10011100 
01110011 00111001 01110101 
11101000 01011100 01000110 

11100010 11101000 10100001 
01011100 10100010 10100011 
10010110 01010010 11010100 

11100001 01111000 10010011 
10001000 10101101 01110110 
00001010 00000111 11001111 


00010011 00011010 10110010 
10000111 10110101 11001101 
00011100 11111110 00100001 

11111000 11010001 11111000 
11110011 10010101 01110000 
00111100 11010001 00110000 

10100111 01110101 00100001 
11111000 00111011 11110101 
10011101 01000000 10111010 

00111101 00100110 11001010 
10000010 01011110 10110111 
11110101 01001110 00111101 

11000001 01100111 00011101 
11110100 01000101 10100001 
10110100 10011011 11100110 

01101100 11110010 10011100 
01110011 00111001 01110101 
11101000 01011100 01000110 

11100010 11101000 10100001 
01011100 10100010 10100011 
10010110 01010010 11010100 

11100001 01111000 10010011 
10001000 10101101 01110110 
00001010 00000111 11001111 



00010011 00011010 10110010 
10000111 10110101 11001101 
00011100 11111110 00100001 

11111000 11010001 11111000 
11110011 10010101 01110000 
00111100 11010001 00110000 

10100111 01110101 00100001 
11111000 00111011 11110101 
10011101 01000000 10111010 

00111101 00100110 11001010 
10000010 01011110 10110111 
11110101 01001110 00111101 

11000001 01100111 00011101 
11110100 01000101 10100001 
10110100 10011011 11100110 

01101100 11110010 10011100 
01110011 00111001 01110101 
11101000 01011100 01000110 

11100010 11101000 10100001 
01011100 10100010 10100011 
10010110 01010010 11010100 

11100001 01111000 10010011 
10001000 10101101 01110110 
00001010 00000111 11001111 


00010011 00011010 10110010 
10000111 10110101 11001101 
00011100 11111110 00100001 

11111000 11010001 11111000 
11110011 10010101 01110000 
00111100 11010001 00110000 

10100111 01110101 00100001 
11111000 00111011 11110101 
10011101 01000000 10111010 

00111101 00100110 11001010 
10000010 01011110 10110111 
11110101 01001110 00111101 

11000001 01100111 00011101 
11110100 01000101 10100001 
10110100 10011011 11100110 

01101100 11110010 10011100 
01110011 00111001 01110101 
11101000 01011100 01000110 

11100010 11101000 10100001 
01011100 10100010 10100011 
10010110 01010010 11010100 

11100001 01111000 10010011 
10001000 10101101 01110110 
00001010 00000111 11001111 


00010011 00011010 10110010 
10000111 10110101 11001101 
00011100 11111110 00100001 

11111000 11010001 11111000 
11110011 10010101 01110000 
00111100 11010001 00110000 

10100111 01110101 00100001 
11111000 00111011 11110101 
10011101 01000000 10111010 

00111101 00100110 11001010 
10000010 01011110 10110111 
11110101 01001110 00111101 

11000001 01100111 00011101 
11110100 01000101 10100001 
10110100 10011011 11100110 

01101100 11110010 10011100 
01110011 00111001 01110101 
11101000 01011100 01000110 

11100010 11101000 10100001 
01011100 10100010 10100011 
10010110 01010010 11010100 

11100001 01111000 10010011 
10001000 10101101 01110110 
00001010 00000111 11001111 


00010011 00011010 10110010 
10000111 10110101 11001101 
00011100 11111110 00100001 

11111000 11010001 11111000 
11110011 10010101 01110000 
00111100 11010001 00110000 

10100111 01110101 00100001 
11111000 00111011 11110101 
10011101 01000000 10111010 

00111101 00100110 11001010 
10000010 01011110 10110111 
11110101 01001110 00111101 

11000001 01100111 00011101 
11110100 01000101 10100001 
10110100 10011011 11100110 

01101100 11110010 10011100 
01110011 00111001 01110101 
11101000 01011100 01000110 

11100010 11101000 10100001 
01011100 10100010 10100011 
10010110 01010010 11010100 

11100001 01111000 10010011 
10001000 10101101 01110110 
00001010 00000111 11001111 



00010011 00011010 10110010 
10000111 10110101 11001101 
00011100 11111110 00100001 

11111000 11010001 11111000 
11110011 10010101 01110000 
00111100 11010001 00110000 

10100111 01110101 00100001 
11111000 00111011 11110101 
10011101 01000000 10111010 

00111101 00100110 11001010 
10000010 01011110 10110111 
11110101 01001110 00111101 

11000001 01100111 00011101 
11110100 01000101 10100001 
10110100 10011011 11100110 

01101100 11110010 10011100 
01110011 00111001 01110101 
11101000 01011100 01000110 

11100010 11101000 10100001 
01011100 10100010 10100011 
10010110 01010010 11010100 

11100001 01111000 10010011 
10001000 10101101 01110110 
00001010 00000111 11001111 


00010011 00011010 10110010 
10000111 10110101 11001101 
00011100 11111110 00100001 

11111000 11010001 11111000 
11110011 10010101 01110000 
00111100 11010001 00110000 

10100111 01110101 00100001 
11111000 00111011 11110101 
10011101 01000000 10111010 

00111101 00100110 11001010 
10000010 01011110 10110111 
11110101 01001110 00111101 

11000001 01100111 00011101 
11110100 01000101 10100001 
10110100 10011011 11100110 

01101100 11110010 10011100 
01110011 00111001 01110101 
11101000 01011100 01000110 

11100010 11101000 10100001 
01011100 10100010 10100011 
10010110 01010010 11010100 

11100001 01111000 10010011 
10001000 10101101 01110110 
00001010 00000111 11001111 


00010011 00011010 10110010 
10000111 10110101 11001101 
00011100 11111110 00100001 

11111000 11010001 11111000 
11110011 10010101 01110000 
00111100 11010001 00110000 

10100111 01110101 00100001 
11111000 00111011 11110101 
10011101 01000000 10111010 

00111101 00100110 11001010 
10000010 01011110 10110111 
11110101 01001110 00111101 

11000001 01100111 00011101 
11110100 01000101 10100001 
10110100 10011011 11100110 

01101100 11110010 10011100 
01110011 00111001 01110101 
11101000 01011100 01000110 

11100010 11101000 10100001 
01011100 10100010 10100011 
10010110 01010010 11010100 

11100001 01111000 10010011 
10001000 10101101 01110110 
00001010 00000111 11001111 


00010011 00011010 10110010 
10000111 10110101 11001101 
00011100 11111110 00100001 

11111000 11010001 11111000 
11110011 10010101 01110000 
00111100 11010001 00110000 

10100111 01110101 00100001 
11111000 00111011 11110101 
10011101 01000000 10111010 

00111101 00100110 11001010 
10000010 01011110 10110111 
11110101 01001110 00111101 

11000001 01100111 00011101 
11110100 01000101 10100001 
10110100 10011011 11100110 

01101100 11110010 10011100 
01110011 00111001 01110101 
11101000 01011100 01000110 

11100010 11101000 10100001 
01011100 10100010 10100011 
10010110 01010010 11010100 

11100001 01111000 10010011 
10001000 10101101 01110110 
00001010 00000111 11001111 



00010011 00011010 10110010 
10000111 10110101 11001101 
00011100 11111110 00100001 

11111000 11010001 11111000 
11110011 10010101 01110000 
00111100 11010001 00110000 

10100111 01110101 00100001 
11111000 00111011 11110101 
10011101 01000000 10111010 

00111101 00100110 11001010 
10000010 01011110 10110111 
11110101 01001110 00111101 

11000001 01100111 00011101 
11110100 01000101 10100001 
10110100 10011011 11100110 

01101100 11110010 10011100 
01110011 00111001 01110101 
11101000 01011100 01000110 

11100010 11101000 10100001 
01011100 10100010 10100011 
10010110 01010010 11010100 

11100001 01111000 10010011 
10001000 10101101 01110110 
00001010 00000111 11001111 


00010011 00011010 10110010 
10000111 10110101 11001101 
00011100 11111110 00100001 

11111000 11010001 11111000 
11110011 10010101 01110000 
00111100 11010001 00110000 

10100111 01110101 00100001 
11111000 00111011 11110101 
10011101 01000000 10111010 

00111101 00100110 11001010 
10000010 01011110 10110111 
11110101 01001110 00111101 

11000001 01100111 00011101 
11110100 01000101 10100001 
10110100 10011011 11100110 

01101100 11110010 10011100 
01110011 00111001 01110101 
11101000 01011100 01000110 

11100010 11101000 10100001 
01011100 10100010 10100011 
10010110 01010010 11010100 

11100001 01111000 10010011 
10001000 10101101 01110110 
00001010 00000111 11001111 


00010011 00011010 10110010 
10000111 10110101 11001101 
00011100 11111110 00100001 

11111000 11010001 11111000 
11110011 10010101 01110000 
00111100 11010001 00110000 

10100111 01110101 00100001 
11111000 00111011 11110101 
10011101 01000000 10111010 

00111101 00100110 11001010 
10000010 01011110 10110111 
11110101 01001110 00111101 

11000001 01100111 00011101 
11110100 01000101 10100001 
10110100 10011011 11100110 

01101100 11110010 10011100 
01110011 00111001 01110101 
11101000 01011100 01000110 

11100010 11101000 10100001 
01011100 10100010 10100011 
10010110 01010010 11010100 

11100001 01111000 10010011 
10001000 10101101 01110110 
00001010 00000111 11001111 


00010011 00011010 10110010 
10000111 10110101 11001101 
00011100 11111110 00100001 

11111000 11010001 11111000 
11110011 10010101 01110000 
00111100 11010001 00110000 

10100111 01110101 00100001 
11111000 00111011 11110101 
10011101 01000000 10111010 

00111101 00100110 11001010 
10000010 01011110 10110111 
11110101 01001110 00111101 

11000001 01100111 00011101 
11110100 01000101 10100001 
10110100 10011011 11100110 

01101100 11110010 10011100 
01110011 00111001 01110101 
11101000 01011100 01000110 

11100010 11101000 10100001 
01011100 10100010 10100011 
10010110 01010010 11010100 

11100001 01111000 10010011 
10001000 10101101 01110110 
00001010 00000111 11001111 



00010011 00011010 10110010 
10000111 10110101 11001101 
00011100 11111110 00100001 

11111000 11010001 11111000 
11110011 10010101 01110000 
00111100 11010001 00110000 

10100111 01110101 00100001 
11111000 00111011 11110101 
10011101 01000000 10111010 

00111101 00100110 11001010 
10000010 01011110 10110111 
11110101 01001110 00111101 

11000001 01100111 00011101 
11110100 01000101 10100001 
10110100 10011011 11100110 

01101100 11110010 10011100 
01110011 00111001 01110101 
11101000 01011100 01000110 

11100010 11101000 10100001 
01011100 10100010 10100011 
10010110 01010010 11010100 

11100001 01111000 10010011 
10001000 10101101 01110110 
00001010 00000111 11001111 


00010011 00011010 10110010 
10000111 10110101 11001101 
00011100 11111110 00100001 

11111000 11010001 11111000 
11110011 10010101 01110000 
00111100 11010001 00110000 

10100111 01110101 00100001 
11111000 00111011 11110101 
10011101 01000000 10111010 

00111101 00100110 11001010 
10000010 01011110 10110111 
11110101 01001110 00111101 

11000001 01100111 00011101 
11110100 01000101 10100001 
10110100 10011011 11100110 

01101100 11110010 10011100 
01110011 00111001 01110101 
11101000 01011100 01000110 

11100010 11101000 10100001 
01011100 10100010 10100011 
10010110 01010010 11010100 

11100001 01111000 10010011 
10001000 10101101 01110110 
00001010 00000111 11001111 


00010011 00011010 10110010 
10000111 10110101 11001101 
00011100 11111110 00100001 

11111000 11010001 11111000 
11110011 10010101 01110000 
00111100 11010001 00110000 

10100111 01110101 00100001 
11111000 00111011 11110101 
10011101 01000000 10111010 

00111101 00100110 11001010 
10000010 01011110 10110111 
11110101 01001110 00111101 

11000001 01100111 00011101 
11110100 01000101 10100001 
10110100 10011011 11100110 

01101100 11110010 10011100 
01110011 00111001 01110101 
11101000 01011100 01000110 

11100010 11101000 10100001 
01011100 10100010 10100011 
10010110 01010010 11010100 

11100001 01111000 10010011 
10001000 10101101 01110110 
00001010 00000111 11001111 


00010011 00011010 10110010 
10000111 10110101 11001101 
00011100 11111110 00100001 

11111000 11010001 11111000 
11110011 10010101 01110000 
00111100 11010001 00110000 

10100111 01110101 00100001 
11111000 00111011 11110101 
10011101 01000000 10111010 

00111101 00100110 11001010 
10000010 01011110 10110111 
11110101 01001110 00111101 

11000001 01100111 00011101 
11110100 01000101 10100001 
10110100 10011011 11100110 

01101100 11110010 10011100 
01110011 00111001 01110101 
11101000 01011100 01000110 

11100010 11101000 10100001 
01011100 10100010 10100011 
10010110 01010010 11010100 

11100001 01111000 10010011 
10001000 10101101 01110110 
00001010 00000111 11001111 



00010011 00011010 10110010 
10000111 10110101 11001101 
00011100 11111110 00100001 

11111000 11010001 11111000 
11110011 10010101 01110000 
00111100 11010001 00110000 

10100111 01110101 00100001 
11111000 00111011 11110101 
10011101 01000000 10111010 

00111101 00100110 11001010 
10000010 01011110 10110111 
11110101 01001110 00111101 

11000001 01100111 00011101 
11110100 01000101 10100001 
10110100 10011011 11100110 

01101100 11110010 10011100 
01110011 00111001 01110101 
11101000 01011100 01000110 

11100010 11101000 10100001 
01011100 10100010 10100011 
10010110 01010010 11010100 

11100001 01111000 10010011 
10001000 10101101 01110110 
00001010 00000111 11001111 


00010011 00011010 10110010 
10000111 10110101 11001101 
00011100 11111110 00100001 

11111000 11010001 11111000 
11110011 10010101 01110000 
00111100 11010001 00110000 

10100111 01110101 00100001 
11111000 00111011 11110101 
10011101 01000000 10111010 

00111101 00100110 11001010 
10000010 01011110 10110111 
11110101 01001110 00111101 

11000001 01100111 00011101 
11110100 01000101 10100001 
10110100 10011011 11100110 

01101100 11110010 10011100 
01110011 00111001 01110101 
11101000 01011100 01000110 

11100010 11101000 10100001 
01011100 10100010 10100011 
10010110 01010010 11010100 

11100001 01111000 10010011 
10001000 10101101 01110110 
00001010 00000111 11001111 


00010011 00011010 10110010 
10000111 10110101 11001101 
00011100 11111110 00100001 

11111000 11010001 11111000 
11110011 10010101 01110000 
00111100 11010001 00110000 

10100111 01110101 00100001 
11111000 00111011 11110101 
10011101 01000000 10111010 

00111101 00100110 11001010 
10000010 01011110 10110111 
11110101 01001110 00111101 

11000001 01100111 00011101 
11110100 01000101 10100001 
10110100 10011011 11100110 

01101100 11110010 10011100 
01110011 00111001 01110101 
11101000 01011100 01000110 

11100010 11101000 10100001 
01011100 10100010 10100011 
10010110 01010010 11010100 

11100001 01111000 10010011 
10001000 10101101 01110110 
00001010 00000111 11001111 


00010011 00011010 10110010 
10000111 10110101 11001101 
00011100 11111110 00100001 

11111000 11010001 11111000 
11110011 10010101 01110000 
00111100 11010001 00110000 

10100111 01110101 00100001 
11111000 00111011 11110101 
10011101 01000000 10111010 

00111101 00100110 11001010 
10000010 01011110 10110111 
11110101 01001110 00111101 

11000001 01100111 00011101 
11110100 01000101 10100001 
10110100 10011011 11100110 

01101100 11110010 10011100 
01110011 00111001 01110101 
11101000 01011100 01000110 

11100010 11101000 10100001 
01011100 10100010 10100011 
10010110 01010010 11010100 

11100001 01111000 10010011 
10001000 10101101 01110110 
00001010 00000111 11001111 



00010011 00011010 10110010 
10000111 10110101 11001101 
00011100 11111110 00100001 

11111000 11010001 11111000 
11110011 10010101 01110000 
00111100 11010001 00110000 

10100111 01110101 00100001 
11111000 00111011 11110101 
10011101 01000000 10111010 

00111101 00100110 11001010 
10000010 01011110 10110111 
11110101 01001110 00111101 

11000001 01100111 00011101 
11110100 01000101 10100001 
10110100 10011011 11100110 

01101100 11110010 10011100 
01110011 00111001 01110101 
11101000 01011100 01000110 

11100010 11101000 10100001 
01011100 10100010 10100011 
10010110 01010010 11010100 

11100001 01111000 10010011 
10001000 10101101 01110110 
00001010 00000111 11001111 


00010011 00011010 10110010 
10000111 10110101 11001101 
00011100 11111110 00100001 

11111000 11010001 11111000 
11110011 10010101 01110000 
00111100 11010001 00110000 

10100111 01110101 00100001 
11111000 00111011 11110101 
10011101 01000000 10111010 

00111101 00100110 11001010 
10000010 01011110 10110111 
11110101 01001110 00111101 

11000001 01100111 00011101 
11110100 01000101 10100001 
10110100 10011011 11100110 

01101100 11110010 10011100 
01110011 00111001 01110101 
11101000 01011100 01000110 

11100010 11101000 10100001 
01011100 10100010 10100011 
10010110 01010010 11010100 

11100001 01111000 10010011 
10001000 10101101 01110110 
00001010 00000111 11001111 


00010011 00011010 10110010 
10000111 10110101 11001101 
00011100 11111110 00100001 

11111000 11010001 11111000 
11110011 10010101 01110000 
00111100 11010001 00110000 

10100111 01110101 00100001 
11111000 00111011 11110101 
10011101 01000000 10111010 

00111101 00100110 11001010 
10000010 01011110 10110111 
11110101 01001110 00111101 

11000001 01100111 00011101 
11110100 01000101 10100001 
10110100 10011011 11100110 

01101100 11110010 10011100 
01110011 00111001 01110101 
11101000 01011100 01000110 

11100010 11101000 10100001 
01011100 10100010 10100011 
10010110 01010010 11010100 

11100001 01111000 10010011 
10001000 10101101 01110110 
00001010 00000111 11001111 


00010011 00011010 10110010 
10000111 10110101 11001101 
00011100 11111110 00100001 

11111000 11010001 11111000 
11110011 10010101 01110000 
00111100 11010001 00110000 

10100111 01110101 00100001 
11111000 00111011 11110101 
10011101 01000000 10111010 

00111101 00100110 11001010 
10000010 01011110 10110111 
11110101 01001110 00111101 

11000001 01100111 00011101 
11110100 01000101 10100001 
10110100 10011011 11100110 

01101100 11110010 10011100 
01110011 00111001 01110101 
11101000 01011100 01000110 

11100010 11101000 10100001 
01011100 10100010 10100011 
10010110 01010010 11010100 

11100001 01111000 10010011 
10001000 10101101 01110110 
00001010 00000111 11001111 



00010011 00011010 10110010 
10000111 10110101 11001101 
00011100 11111110 00100001 

11111000 11010001 11111000 
11110011 10010101 01110000 
00111100 11010001 00110000 

10100111 01110101 00100001 
11111000 00111011 11110101 
10011101 01000000 10111010 

00111101 00100110 11001010 
10000010 01011110 10110111 
11110101 01001110 00111101 

11000001 01100111 00011101 
11110100 01000101 10100001 
10110100 10011011 11100110 

01101100 11110010 10011100 
01110011 00111001 01110101 
11101000 01011100 01000110 

11100010 11101000 10100001 
01011100 10100010 10100011 
10010110 01010010 11010100 

11100001 01111000 10010011 
10001000 10101101 01110110 
00001010 00000111 11001111 


00010011 00011010 10110010 
10000111 10110101 11001101 
00011100 11111110 00100001 

11111000 11010001 11111000 
11110011 10010101 01110000 
00111100 11010001 00110000 

10100111 01110101 00100001 
11111000 00111011 11110101 
10011101 01000000 10111010 

00111101 00100110 11001010 
10000010 01011110 10110111 
11110101 01001110 00111101 

11000001 01100111 00011101 
11110100 01000101 10100001 
10110100 10011011 11100110 

01101100 11110010 10011100 
01110011 00111001 01110101 
11101000 01011100 01000110 

11100010 11101000 10100001 
01011100 10100010 10100011 
10010110 01010010 11010100 

11100001 01111000 10010011 
10001000 10101101 01110110 
00001010 00000111 11001111 


00010011 00011010 10110010 
10000111 10110101 11001101 
00011100 11111110 00100001 

11111000 11010001 11111000 
11110011 10010101 01110000 
00111100 11010001 00110000 

10100111 01110101 00100001 
11111000 00111011 11110101 
10011101 01000000 10111010 

00111101 00100110 11001010 
10000010 01011110 10110111 
11110101 01001110 00111101 

11000001 01100111 00011101 
11110100 01000101 10100001 
10110100 10011011 11100110 

01101100 11110010 10011100 
01110011 00111001 01110101 
11101000 01011100 01000110 

11100010 11101000 10100001 
01011100 10100010 10100011 
10010110 01010010 11010100 

11100001 01111000 10010011 
10001000 10101101 01110110 
00001010 00000111 11001111 


00010011 00011010 10110010 
10000111 10110101 11001101 
00011100 11111110 00100001 

11111000 11010001 11111000 
11110011 10010101 01110000 
00111100 11010001 00110000 

10100111 01110101 00100001 
11111000 00111011 11110101 
10011101 01000000 10111010 

00111101 00100110 11001010 
10000010 01011110 10110111 
11110101 01001110 00111101 

11000001 01100111 00011101 
11110100 01000101 10100001 
10110100 10011011 11100110 

01101100 11110010 10011100 
01110011 00111001 01110101 
11101000 01011100 01000110 

11100010 11101000 10100001 
01011100 10100010 10100011 
10010110 01010010 11010100 

11100001 01111000 10010011 
10001000 10101101 01110110 
00001010 00000111 11001111 




11001101 00000011 00101111 
01001111 10100000 10101010 
10011101 11110000 00000000 

01101110 10110110 01011110 
11100100 10110011 11111010 
00011001 10001110 11001011 

01011111 01100100 10000111 
01000110 01011000 11110101 
01111011 11110010 00101110 

11001110 01110011 01101010 
00111100 10010100 11100111 
11000101 10100001 11100001 

00001111 01010110 00100000 
01000010 01011000 11111010 
00011001 00100111 01010110 

01100111 11001001 00010010 
01110101 00001110 11100100 
11010001 11111000 01010100 

10111101 10110000 00100100 
11000100 01111010 01010011 
11101101 00011100 11010110 

01111001 11111101 01000100 
00101001 00100101 00101101 
00010111 11110000 00111000 


11001101 00000011 00101111 
01001111 10100000 10101010 
10011101 11110000 00000000 

01101110 10110110 01011110 
11100100 10110011 11111010 
00011001 10001110 11001011 

01011111 01100100 10000111 
01000110 01011000 11110101 
01111011 11110010 00101110 

11001110 01110011 01101010 
00111100 10010100 11100111 
11000101 10100001 11100001 

00001111 01010110 00100000 
01000010 01011000 11111010 
00011001 00100111 01010110 

01100111 11001001 00010010 
01110101 00001110 11100100 
11010001 11111000 01010100 

10111101 10110000 00100100 
11000100 01111010 01010011 
11101101 00011100 11010110 

01111001 11111101 01000100 
00101001 00100101 00101101 
00010111 11110000 00111000 


11001101 00000011 00101111 
01001111 10100000 10101010 
10011101 11110000 00000000 

01101110 10110110 01011110 
11100100 10110011 11111010 
00011001 10001110 11001011 

01011111 01100100 10000111 
01000110 01011000 11110101 
01111011 11110010 00101110 

11001110 01110011 01101010 
00111100 10010100 11100111 
11000101 10100001 11100001 

00001111 01010110 00100000 
01000010 01011000 11111010 
00011001 00100111 01010110 

01100111 11001001 00010010 
01110101 00001110 11100100 
11010001 11111000 01010100 

10111101 10110000 00100100 
11000100 01111010 01010011 
11101101 00011100 11010110 

01111001 11111101 01000100 
00101001 00100101 00101101 
00010111 11110000 00111000 


11001101 00000011 00101111 
01001111 10100000 10101010 
10011101 11110000 00000000 

01101110 10110110 01011110 
11100100 10110011 11111010 
00011001 10001110 11001011 

01011111 01100100 10000111 
01000110 01011000 11110101 
01111011 11110010 00101110 

11001110 01110011 01101010 
00111100 10010100 11100111 
11000101 10100001 11100001 

00001111 01010110 00100000 
01000010 01011000 11111010 
00011001 00100111 01010110 

01100111 11001001 00010010 
01110101 00001110 11100100 
11010001 11111000 01010100 

10111101 10110000 00100100 
11000100 01111010 01010011 
11101101 00011100 11010110 

01111001 11111101 01000100 
00101001 00100101 00101101 
00010111 11110000 00111000 



11001101 00000011 00101111 
01001111 10100000 10101010 
10011101 11110000 00000000 

01101110 10110110 01011110 
11100100 10110011 11111010 
00011001 10001110 11001011 

01011111 01100100 10000111 
01000110 01011000 11110101 
01111011 11110010 00101110 

11001110 01110011 01101010 
00111100 10010100 11100111 
11000101 10100001 11100001 

00001111 01010110 00100000 
01000010 01011000 11111010 
00011001 00100111 01010110 

01100111 11001001 00010010 
01110101 00001110 11100100 
11010001 11111000 01010100 

10111101 10110000 00100100 
11000100 01111010 01010011 
11101101 00011100 11010110 

01111001 11111101 01000100 
00101001 00100101 00101101 
00010111 11110000 00111000 


11001101 00000011 00101111 
01001111 10100000 10101010 
10011101 11110000 00000000 

01101110 10110110 01011110 
11100100 10110011 11111010 
00011001 10001110 11001011 

01011111 01100100 10000111 
01000110 01011000 11110101 
01111011 11110010 00101110 

11001110 01110011 01101010 
00111100 10010100 11100111 
11000101 10100001 11100001 

00001111 01010110 00100000 
01000010 01011000 11111010 
00011001 00100111 01010110 

01100111 11001001 00010010 
01110101 00001110 11100100 
11010001 11111000 01010100 

10111101 10110000 00100100 
11000100 01111010 01010011 
11101101 00011100 11010110 

01111001 11111101 01000100 
00101001 00100101 00101101 
00010111 11110000 00111000 


11001101 00000011 00101111 
01001111 10100000 10101010 
10011101 11110000 00000000 

01101110 10110110 01011110 
11100100 10110011 11111010 
00011001 10001110 11001011 

01011111 01100100 10000111 
01000110 01011000 11110101 
01111011 11110010 00101110 

11001110 01110011 01101010 
00111100 10010100 11100111 
11000101 10100001 11100001 

00001111 01010110 00100000 
01000010 01011000 11111010 
00011001 00100111 01010110 

01100111 11001001 00010010 
01110101 00001110 11100100 
11010001 11111000 01010100 

10111101 10110000 00100100 
11000100 01111010 01010011 
11101101 00011100 11010110 

01111001 11111101 01000100 
00101001 00100101 00101101 
00010111 11110000 00111000 


11001101 00000011 00101111 
01001111 10100000 10101010 
10011101 11110000 00000000 

01101110 10110110 01011110 
11100100 10110011 11111010 
00011001 10001110 11001011 

01011111 01100100 10000111 
01000110 01011000 11110101 
01111011 11110010 00101110 

11001110 01110011 01101010 
00111100 10010100 11100111 
11000101 10100001 11100001 

00001111 01010110 00100000 
01000010 01011000 11111010 
00011001 00100111 01010110 

01100111 11001001 00010010 
01110101 00001110 11100100 
11010001 11111000 01010100 

10111101 10110000 00100100 
11000100 01111010 01010011 
11101101 00011100 11010110 

01111001 11111101 01000100 
00101001 00100101 00101101 
00010111 11110000 00111000 



11001101 00000011 00101111 
01001111 10100000 10101010 
10011101 11110000 00000000 

01101110 10110110 01011110 
11100100 10110011 11111010 
00011001 10001110 11001011 

01011111 01100100 10000111 
01000110 01011000 11110101 
01111011 11110010 00101110 

11001110 01110011 01101010 
00111100 10010100 11100111 
11000101 10100001 11100001 

00001111 01010110 00100000 
01000010 01011000 11111010 
00011001 00100111 01010110 

01100111 11001001 00010010 
01110101 00001110 11100100 
11010001 11111000 01010100 

10111101 10110000 00100100 
11000100 01111010 01010011 
11101101 00011100 11010110 

01111001 11111101 01000100 
00101001 00100101 00101101 
00010111 11110000 00111000 


11001101 00000011 00101111 
01001111 10100000 10101010 
10011101 11110000 00000000 

01101110 10110110 01011110 
11100100 10110011 11111010 
00011001 10001110 11001011 

01011111 01100100 10000111 
01000110 01011000 11110101 
01111011 11110010 00101110 

11001110 01110011 01101010 
00111100 10010100 11100111 
11000101 10100001 11100001 

00001111 01010110 00100000 
01000010 01011000 11111010 
00011001 00100111 01010110 

01100111 11001001 00010010 
01110101 00001110 11100100 
11010001 11111000 01010100 

10111101 10110000 00100100 
11000100 01111010 01010011 
11101101 00011100 11010110 

01111001 11111101 01000100 
00101001 00100101 00101101 
00010111 11110000 00111000 


11001101 00000011 00101111 
01001111 10100000 10101010 
10011101 11110000 00000000 

01101110 10110110 01011110 
11100100 10110011 11111010 
00011001 10001110 11001011 

01011111 01100100 10000111 
01000110 01011000 11110101 
01111011 11110010 00101110 

11001110 01110011 01101010 
00111100 10010100 11100111 
11000101 10100001 11100001 

00001111 01010110 00100000 
01000010 01011000 11111010 
00011001 00100111 01010110 

01100111 11001001 00010010 
01110101 00001110 11100100 
11010001 11111000 01010100 

10111101 10110000 00100100 
11000100 01111010 01010011 
11101101 00011100 11010110 

01111001 11111101 01000100 
00101001 00100101 00101101 
00010111 11110000 00111000 


11001101 00000011 00101111 
01001111 10100000 10101010 
10011101 11110000 00000000 

01101110 10110110 01011110 
11100100 10110011 11111010 
00011001 10001110 11001011 

01011111 01100100 10000111 
01000110 01011000 11110101 
01111011 11110010 00101110 

11001110 01110011 01101010 
00111100 10010100 11100111 
11000101 10100001 11100001 

00001111 01010110 00100000 
01000010 01011000 11111010 
00011001 00100111 01010110 

01100111 11001001 00010010 
01110101 00001110 11100100 
11010001 11111000 01010100 

10111101 10110000 00100100 
11000100 01111010 01010011 
11101101 00011100 11010110 

01111001 11111101 01000100 
00101001 00100101 00101101 
00010111 11110000 00111000 



11001101 00000011 00101111 
01001111 10100000 10101010 
10011101 11110000 00000000 

01101110 10110110 01011110 
11100100 10110011 11111010 
00011001 10001110 11001011 

01011111 01100100 10000111 
01000110 01011000 11110101 
01111011 11110010 00101110 

11001110 01110011 01101010 
00111100 10010100 11100111 
11000101 10100001 11100001 

00001111 01010110 00100000 
01000010 01011000 11111010 
00011001 00100111 01010110 

01100111 11001001 00010010 
01110101 00001110 11100100 
11010001 11111000 01010100 

10111101 10110000 00100100 
11000100 01111010 01010011 
11101101 00011100 11010110 

01111001 11111101 01000100 
00101001 00100101 00101101 
00010111 11110000 00111000 


11001101 00000011 00101111 
01001111 10100000 10101010 
10011101 11110000 00000000 

01101110 10110110 01011110 
11100100 10110011 11111010 
00011001 10001110 11001011 

01011111 01100100 10000111 
01000110 01011000 11110101 
01111011 11110010 00101110 

11001110 01110011 01101010 
00111100 10010100 11100111 
11000101 10100001 11100001 

00001111 01010110 00100000 
01000010 01011000 11111010 
00011001 00100111 01010110 

01100111 11001001 00010010 
01110101 00001110 11100100 
11010001 11111000 01010100 

10111101 10110000 00100100 
11000100 01111010 01010011 
11101101 00011100 11010110 

01111001 11111101 01000100 
00101001 00100101 00101101 
00010111 11110000 00111000 


11001101 00000011 00101111 
01001111 10100000 10101010 
10011101 11110000 00000000 

01101110 10110110 01011110 
11100100 10110011 11111010 
00011001 10001110 11001011 

01011111 01100100 10000111 
01000110 01011000 11110101 
01111011 11110010 00101110 

11001110 01110011 01101010 
00111100 10010100 11100111 
11000101 10100001 11100001 

00001111 01010110 00100000 
01000010 01011000 11111010 
00011001 00100111 01010110 

01100111 11001001 00010010 
01110101 00001110 11100100 
11010001 11111000 01010100 

10111101 10110000 00100100 
11000100 01111010 01010011 
11101101 00011100 11010110 

01111001 11111101 01000100 
00101001 00100101 00101101 
00010111 11110000 00111000 


11001101 00000011 00101111 
01001111 10100000 10101010 
10011101 11110000 00000000 

01101110 10110110 01011110 
11100100 10110011 11111010 
00011001 10001110 11001011 

01011111 01100100 10000111 
01000110 01011000 11110101 
01111011 11110010 00101110 

11001110 01110011 01101010 
00111100 10010100 11100111 
11000101 10100001 11100001 

00001111 01010110 00100000 
01000010 01011000 11111010 
00011001 00100111 01010110 

01100111 11001001 00010010 
01110101 00001110 11100100 
11010001 11111000 01010100 

10111101 10110000 00100100 
11000100 01111010 01010011 
11101101 00011100 11010110 

01111001 11111101 01000100 
00101001 00100101 00101101 
00010111 11110000 00111000 



11001101 00000011 00101111 
01001111 10100000 10101010 
10011101 11110000 00000000 

01101110 10110110 01011110 
11100100 10110011 11111010 
00011001 10001110 11001011 

01011111 01100100 10000111 
01000110 01011000 11110101 
01111011 11110010 00101110 

11001110 01110011 01101010 
00111100 10010100 11100111 
11000101 10100001 11100001 

00001111 01010110 00100000 
01000010 01011000 11111010 
00011001 00100111 01010110 

01100111 11001001 00010010 
01110101 00001110 11100100 
11010001 11111000 01010100 

10111101 10110000 00100100 
11000100 01111010 01010011 
11101101 00011100 11010110 

01111001 11111101 01000100 
00101001 00100101 00101101 
00010111 11110000 00111000 


11001101 00000011 00101111 
01001111 10100000 10101010 
10011101 11110000 00000000 

01101110 10110110 01011110 
11100100 10110011 11111010 
00011001 10001110 11001011 

01011111 01100100 10000111 
01000110 01011000 11110101 
01111011 11110010 00101110 

11001110 01110011 01101010 
00111100 10010100 11100111 
11000101 10100001 11100001 

00001111 01010110 00100000 
01000010 01011000 11111010 
00011001 00100111 01010110 

01100111 11001001 00010010 
01110101 00001110 11100100 
11010001 11111000 01010100 

10111101 10110000 00100100 
11000100 01111010 01010011 
11101101 00011100 11010110 

01111001 11111101 01000100 
00101001 00100101 00101101 
00010111 11110000 00111000 


11001101 00000011 00101111 
01001111 10100000 10101010 
10011101 11110000 00000000 

01101110 10110110 01011110 
11100100 10110011 11111010 
00011001 10001110 11001011 

01011111 01100100 10000111 
01000110 01011000 11110101 
01111011 11110010 00101110 

11001110 01110011 01101010 
00111100 10010100 11100111 
11000101 10100001 11100001 

00001111 01010110 00100000 
01000010 01011000 11111010 
00011001 00100111 01010110 

01100111 11001001 00010010 
01110101 00001110 11100100 
11010001 11111000 01010100 

10111101 10110000 00100100 
11000100 01111010 01010011 
11101101 00011100 11010110 

01111001 11111101 01000100 
00101001 00100101 00101101 
00010111 11110000 00111000 


11001101 00000011 00101111 
01001111 10100000 10101010 
10011101 11110000 00000000 

01101110 10110110 01011110 
11100100 10110011 11111010 
00011001 10001110 11001011 

01011111 01100100 10000111 
01000110 01011000 11110101 
01111011 11110010 00101110 

11001110 01110011 01101010 
00111100 10010100 11100111 
11000101 10100001 11100001 

00001111 01010110 00100000 
01000010 01011000 11111010 
00011001 00100111 01010110 

01100111 11001001 00010010 
01110101 00001110 11100100 
11010001 11111000 01010100 

10111101 10110000 00100100 
11000100 01111010 01010011 
11101101 00011100 11010110 

01111001 11111101 01000100 
00101001 00100101 00101101 
00010111 11110000 00111000 



11001101 00000011 00101111 
01001111 10100000 10101010 
10011101 11110000 00000000 

01101110 10110110 01011110 
11100100 10110011 11111010 
00011001 10001110 11001011 

01011111 01100100 10000111 
01000110 01011000 11110101 
01111011 11110010 00101110 

11001110 01110011 01101010 
00111100 10010100 11100111 
11000101 10100001 11100001 

00001111 01010110 00100000 
01000010 01011000 11111010 
00011001 00100111 01010110 

01100111 11001001 00010010 
01110101 00001110 11100100 
11010001 11111000 01010100 

10111101 10110000 00100100 
11000100 01111010 01010011 
11101101 00011100 11010110 

01111001 11111101 01000100 
00101001 00100101 00101101 
00010111 11110000 00111000 


11001101 00000011 00101111 
01001111 10100000 10101010 
10011101 11110000 00000000 

01101110 10110110 01011110 
11100100 10110011 11111010 
00011001 10001110 11001011 

01011111 01100100 10000111 
01000110 01011000 11110101 
01111011 11110010 00101110 

11001110 01110011 01101010 
00111100 10010100 11100111 
11000101 10100001 11100001 

00001111 01010110 00100000 
01000010 01011000 11111010 
00011001 00100111 01010110 

01100111 11001001 00010010 
01110101 00001110 11100100 
11010001 11111000 01010100 

10111101 10110000 00100100 
11000100 01111010 01010011 
11101101 00011100 11010110 

01111001 11111101 01000100 
00101001 00100101 00101101 
00010111 11110000 00111000 


11001101 00000011 00101111 
01001111 10100000 10101010 
10011101 11110000 00000000 

01101110 10110110 01011110 
11100100 10110011 11111010 
00011001 10001110 11001011 

01011111 01100100 10000111 
01000110 01011000 11110101 
01111011 11110010 00101110 

11001110 01110011 01101010 
00111100 10010100 11100111 
11000101 10100001 11100001 

00001111 01010110 00100000 
01000010 01011000 11111010 
00011001 00100111 01010110 

01100111 11001001 00010010 
01110101 00001110 11100100 
11010001 11111000 01010100 

10111101 10110000 00100100 
11000100 01111010 01010011 
11101101 00011100 11010110 

01111001 11111101 01000100 
00101001 00100101 00101101 
00010111 11110000 00111000 


11001101 00000011 00101111 
01001111 10100000 10101010 
10011101 11110000 00000000 

01101110 10110110 01011110 
11100100 10110011 11111010 
00011001 10001110 11001011 

01011111 01100100 10000111 
01000110 01011000 11110101 
01111011 11110010 00101110 

11001110 01110011 01101010 
00111100 10010100 11100111 
11000101 10100001 11100001 

00001111 01010110 00100000 
01000010 01011000 11111010 
00011001 00100111 01010110 

01100111 11001001 00010010 
01110101 00001110 11100100 
11010001 11111000 01010100 

10111101 10110000 00100100 
11000100 01111010 01010011 
11101101 00011100 11010110 

01111001 11111101 01000100 
00101001 00100101 00101101 
00010111 11110000 00111000 



11001101 00000011 00101111 
01001111 10100000 10101010 
10011101 11110000 00000000 

01101110 10110110 01011110 
11100100 10110011 11111010 
00011001 10001110 11001011 

01011111 01100100 10000111 
01000110 01011000 11110101 
01111011 11110010 00101110 

11001110 01110011 01101010 
00111100 10010100 11100111 
11000101 10100001 11100001 

00001111 01010110 00100000 
01000010 01011000 11111010 
00011001 00100111 01010110 

01100111 11001001 00010010 
01110101 00001110 11100100 
11010001 11111000 01010100 

10111101 10110000 00100100 
11000100 01111010 01010011 
11101101 00011100 11010110 

01111001 11111101 01000100 
00101001 00100101 00101101 
00010111 11110000 00111000 


11001101 00000011 00101111 
01001111 10100000 10101010 
10011101 11110000 00000000 

01101110 10110110 01011110 
11100100 10110011 11111010 
00011001 10001110 11001011 

01011111 01100100 10000111 
01000110 01011000 11110101 
01111011 11110010 00101110 

11001110 01110011 01101010 
00111100 10010100 11100111 
11000101 10100001 11100001 

00001111 01010110 00100000 
01000010 01011000 11111010 
00011001 00100111 01010110 

01100111 11001001 00010010 
01110101 00001110 11100100 
11010001 11111000 01010100 

10111101 10110000 00100100 
11000100 01111010 01010011 
11101101 00011100 11010110 

01111001 11111101 01000100 
00101001 00100101 00101101 
00010111 11110000 00111000 


11001101 00000011 00101111 
01001111 10100000 10101010 
10011101 11110000 00000000 

01101110 10110110 01011110 
11100100 10110011 11111010 
00011001 10001110 11001011 

01011111 01100100 10000111 
01000110 01011000 11110101 
01111011 11110010 00101110 

11001110 01110011 01101010 
00111100 10010100 11100111 
11000101 10100001 11100001 

00001111 01010110 00100000 
01000010 01011000 11111010 
00011001 00100111 01010110 

01100111 11001001 00010010 
01110101 00001110 11100100 
11010001 11111000 01010100 

10111101 10110000 00100100 
11000100 01111010 01010011 
11101101 00011100 11010110 

01111001 11111101 01000100 
00101001 00100101 00101101 
00010111 11110000 00111000 


11001101 00000011 00101111 
01001111 10100000 10101010 
10011101 11110000 00000000 

01101110 10110110 01011110 
11100100 10110011 11111010 
00011001 10001110 11001011 

01011111 01100100 10000111 
01000110 01011000 11110101 
01111011 11110010 00101110 

11001110 01110011 01101010 
00111100 10010100 11100111 
11000101 10100001 11100001 

00001111 01010110 00100000 
01000010 01011000 11111010 
00011001 00100111 01010110 

01100111 11001001 00010010 
01110101 00001110 11100100 
11010001 11111000 01010100 

10111101 10110000 00100100 
11000100 01111010 01010011 
11101101 00011100 11010110 

01111001 11111101 01000100 
00101001 00100101 00101101 
00010111 11110000 00111000 



11001101 00000011 00101111 
01001111 10100000 10101010 
10011101 11110000 00000000 

01101110 10110110 01011110 
11100100 10110011 11111010 
00011001 10001110 11001011 

01011111 01100100 10000111 
01000110 01011000 11110101 
01111011 11110010 00101110 

11001110 01110011 01101010 
00111100 10010100 11100111 
11000101 10100001 11100001 

00001111 01010110 00100000 
01000010 01011000 11111010 
00011001 00100111 01010110 

01100111 11001001 00010010 
01110101 00001110 11100100 
11010001 11111000 01010100 

10111101 10110000 00100100 
11000100 01111010 01010011 
11101101 00011100 11010110 

01111001 11111101 01000100 
00101001 00100101 00101101 
00010111 11110000 00111000 


11001101 00000011 00101111 
01001111 10100000 10101010 
10011101 11110000 00000000 

01101110 10110110 01011110 
11100100 10110011 11111010 
00011001 10001110 11001011 

01011111 01100100 10000111 
01000110 01011000 11110101 
01111011 11110010 00101110 

11001110 01110011 01101010 
00111100 10010100 11100111 
11000101 10100001 11100001 

00001111 01010110 00100000 
01000010 01011000 11111010 
00011001 00100111 01010110 

01100111 11001001 00010010 
01110101 00001110 11100100 
11010001 11111000 01010100 

10111101 10110000 00100100 
11000100 01111010 01010011 
11101101 00011100 11010110 

01111001 11111101 01000100 
00101001 00100101 00101101 
00010111 11110000 00111000 


11001101 00000011 00101111 
01001111 10100000 10101010 
10011101 11110000 00000000 

01101110 10110110 01011110 
11100100 10110011 11111010 
00011001 10001110 11001011 

01011111 01100100 10000111 
01000110 01011000 11110101 
01111011 11110010 00101110 

11001110 01110011 01101010 
00111100 10010100 11100111 
11000101 10100001 11100001 

00001111 01010110 00100000 
01000010 01011000 11111010 
00011001 00100111 01010110 

01100111 11001001 00010010 
01110101 00001110 11100100 
11010001 11111000 01010100 

10111101 10110000 00100100 
11000100 01111010 01010011 
11101101 00011100 11010110 

01111001 11111101 01000100 
00101001 00100101 00101101 
00010111 11110000 00111000 


11001101 00000011 00101111 
01001111 10100000 10101010 
10011101 11110000 00000000 

01101110 10110110 01011110 
11100100 10110011 11111010 
00011001 10001110 11001011 

01011111 01100100 10000111 
01000110 01011000 11110101 
01111011 11110010 00101110 

11001110 01110011 01101010 
00111100 10010100 11100111 
11000101 10100001 11100001 

00001111 01010110 00100000 
01000010 01011000 11111010 
00011001 00100111 01010110 

01100111 11001001 00010010 
01110101 00001110 11100100 
11010001 11111000 01010100 

10111101 10110000 00100100 
11000100 01111010 01010011 
11101101 00011100 11010110 

01111001 11111101 01000100 
00101001 00100101 00101101 
00010111 11110000 00111000 



11001101 00000011 00101111 
01001111 10100000 10101010 
10011101 11110000 00000000 

01101110 10110110 01011110 
11100100 10110011 11111010 
00011001 10001110 11001011 

01011111 01100100 10000111 
01000110 01011000 11110101 
01111011 11110010 00101110 

11001110 01110011 01101010 
00111100 10010100 11100111 
11000101 10100001 11100001 

00001111 01010110 00100000 
01000010 01011000 11111010 
00011001 00100111 01010110 

01100111 11001001 00010010 
01110101 00001110 11100100 
11010001 11111000 01010100 

10111101 10110000 00100100 
11000100 01111010 01010011 
11101101 00011100 11010110 

01111001 11111101 01000100 
00101001 00100101 00101101 
00010111 11110000 00111000 


11001101 00000011 00101111 
01001111 10100000 10101010 
10011101 11110000 00000000 

01101110 10110110 01011110 
11100100 10110011 11111010 
00011001 10001110 11001011 

01011111 01100100 10000111 
01000110 01011000 11110101 
01111011 11110010 00101110 

11001110 01110011 01101010 
00111100 10010100 11100111 
11000101 10100001 11100001 

00001111 01010110 00100000 
01000010 01011000 11111010 
00011001 00100111 01010110 

01100111 11001001 00010010 
01110101 00001110 11100100 
11010001 11111000 01010100 

10111101 10110000 00100100 
11000100 01111010 01010011 
11101101 00011100 11010110 

01111001 11111101 01000100 
00101001 00100101 00101101 
00010111 11110000 00111000 


11001101 00000011 00101111 
01001111 10100000 10101010 
10011101 11110000 00000000 

01101110 10110110 01011110 
11100100 10110011 11111010 
00011001 10001110 11001011 

01011111 01100100 10000111 
01000110 01011000 11110101 
01111011 11110010 00101110 

11001110 01110011 01101010 
00111100 10010100 11100111 
11000101 10100001 11100001 

00001111 01010110 00100000 
01000010 01011000 11111010 
00011001 00100111 01010110 

01100111 11001001 00010010 
01110101 00001110 11100100 
11010001 11111000 01010100 

10111101 10110000 00100100 
11000100 01111010 01010011 
11101101 00011100 11010110 

01111001 11111101 01000100 
00101001 00100101 00101101 
00010111 11110000 00111000 


11001101 00000011 00101111 
01001111 10100000 10101010 
10011101 11110000 00000000 

01101110 10110110 01011110 
11100100 10110011 11111010 
00011001 10001110 11001011 

01011111 01100100 10000111 
01000110 01011000 11110101 
01111011 11110010 00101110 

11001110 01110011 01101010 
00111100 10010100 11100111 
11000101 10100001 11100001 

00001111 01010110 00100000 
01000010 01011000 11111010 
00011001 00100111 01010110 

01100111 11001001 00010010 
01110101 00001110 11100100 
11010001 11111000 01010100 

10111101 10110000 00100100 
11000100 01111010 01010011 
11101101 00011100 11010110 

01111001 11111101 01000100 
00101001 00100101 00101101 
00010111 11110000 00111000 



11001101 00000011 00101111 
01001111 10100000 10101010 
10011101 11110000 00000000 

01101110 10110110 01011110 
11100100 10110011 11111010 
00011001 10001110 11001011 

01011111 01100100 10000111 
01000110 01011000 11110101 
01111011 11110010 00101110 

11001110 01110011 01101010 
00111100 10010100 11100111 
11000101 10100001 11100001 

00001111 01010110 00100000 
01000010 01011000 11111010 
00011001 00100111 01010110 

01100111 11001001 00010010 
01110101 00001110 11100100 
11010001 11111000 01010100 

10111101 10110000 00100100 
11000100 01111010 01010011 
11101101 00011100 11010110 

01111001 11111101 01000100 
00101001 00100101 00101101 
00010111 11110000 00111000 


11001101 00000011 00101111 
01001111 10100000 10101010 
10011101 11110000 00000000 

01101110 10110110 01011110 
11100100 10110011 11111010 
00011001 10001110 11001011 

01011111 01100100 10000111 
01000110 01011000 11110101 
01111011 11110010 00101110 

11001110 01110011 01101010 
00111100 10010100 11100111 
11000101 10100001 11100001 

00001111 01010110 00100000 
01000010 01011000 11111010 
00011001 00100111 01010110 

01100111 11001001 00010010 
01110101 00001110 11100100 
11010001 11111000 01010100 

10111101 10110000 00100100 
11000100 01111010 01010011 
11101101 00011100 11010110 

01111001 11111101 01000100 
00101001 00100101 00101101 
00010111 11110000 00111000 


11001101 00000011 00101111 
01001111 10100000 10101010 
10011101 11110000 00000000 

01101110 10110110 01011110 
11100100 10110011 11111010 
00011001 10001110 11001011 

01011111 01100100 10000111 
01000110 01011000 11110101 
01111011 11110010 00101110 

11001110 01110011 01101010 
00111100 10010100 11100111 
11000101 10100001 11100001 

00001111 01010110 00100000 
01000010 01011000 11111010 
00011001 00100111 01010110 

01100111 11001001 00010010 
01110101 00001110 11100100 
11010001 11111000 01010100 

10111101 10110000 00100100 
11000100 01111010 01010011 
11101101 00011100 11010110 

01111001 11111101 01000100 
00101001 00100101 00101101 
00010111 11110000 00111000 


11001101 00000011 00101111 
01001111 10100000 10101010 
10011101 11110000 00000000 

01101110 10110110 01011110 
11100100 10110011 11111010 
00011001 10001110 11001011 

01011111 01100100 10000111 
01000110 01011000 11110101 
01111011 11110010 00101110 

11001110 01110011 01101010 
00111100 10010100 11100111 
11000101 10100001 11100001 

00001111 01010110 00100000 
01000010 01011000 11111010 
00011001 00100111 01010110 

01100111 11001001 00010010 
01110101 00001110 11100100 
11010001 11111000 01010100 

10111101 10110000 00100100 
11000100 01111010 01010011 
11101101 00011100 11010110 

01111001 11111101 01000100 
00101001 00100101 00101101 
00010111 11110000 00111000 



11001101 00000011 00101111 
01001111 10100000 10101010 
10011101 11110000 00000000 

01101110 10110110 01011110 
11100100 10110011 11111010 
00011001 10001110 11001011 

01011111 01100100 10000111 
01000110 01011000 11110101 
01111011 11110010 00101110 

11001110 01110011 01101010 
00111100 10010100 11100111 
11000101 10100001 11100001 

00001111 01010110 00100000 
01000010 01011000 11111010 
00011001 00100111 01010110 

01100111 11001001 00010010 
01110101 00001110 11100100 
11010001 11111000 01010100 

10111101 10110000 00100100 
11000100 01111010 01010011 
11101101 00011100 11010110 

01111001 11111101 01000100 
00101001 00100101 00101101 
00010111 11110000 00111000 


11001101 00000011 00101111 
01001111 10100000 10101010 
10011101 11110000 00000000 

01101110 10110110 01011110 
11100100 10110011 11111010 
00011001 10001110 11001011 

01011111 01100100 10000111 
01000110 01011000 11110101 
01111011 11110010 00101110 

11001110 01110011 01101010 
00111100 10010100 11100111 
11000101 10100001 11100001 

00001111 01010110 00100000 
01000010 01011000 11111010 
00011001 00100111 01010110 

01100111 11001001 00010010 
01110101 00001110 11100100 
11010001 11111000 01010100 

10111101 10110000 00100100 
11000100 01111010 01010011 
11101101 00011100 11010110 

01111001 11111101 01000100 
00101001 00100101 00101101 
00010111 11110000 00111000 


11001101 00000011 00101111 
01001111 10100000 10101010 
10011101 11110000 00000000 

01101110 10110110 01011110 
11100100 10110011 11111010 
00011001 10001110 11001011 

01011111 01100100 10000111 
01000110 01011000 11110101 
01111011 11110010 00101110 

11001110 01110011 01101010 
00111100 10010100 11100111 
11000101 10100001 11100001 

00001111 01010110 00100000 
01000010 01011000 11111010 
00011001 00100111 01010110 

01100111 11001001 00010010 
01110101 00001110 11100100 
11010001 11111000 01010100 

10111101 10110000 00100100 
11000100 01111010 01010011 
11101101 00011100 11010110 

01111001 11111101 01000100 
00101001 00100101 00101101 
00010111 11110000 00111000 


11001101 00000011 00101111 
01001111 10100000 10101010 
10011101 11110000 00000000 

01101110 10110110 01011110 
11100100 10110011 11111010 
00011001 10001110 11001011 

01011111 01100100 10000111 
01000110 01011000 11110101 
01111011 11110010 00101110 

11001110 01110011 01101010 
00111100 10010100 11100111 
11000101 10100001 11100001 

00001111 01010110 00100000 
01000010 01011000 11111010 
00011001 00100111 01010110 

01100111 11001001 00010010 
01110101 00001110 11100100 
11010001 11111000 01010100 

10111101 10110000 00100100 
11000100 01111010 01010011 
11101101 00011100 11010110 

01111001 11111101 01000100 
00101001 00100101 00101101 
00010111 11110000 00111000 



11001101 00000011 00101111 
01001111 10100000 10101010 
10011101 11110000 00000000 

01101110 10110110 01011110 
11100100 10110011 11111010 
00011001 10001110 11001011 

01011111 01100100 10000111 
01000110 01011000 11110101 
01111011 11110010 00101110 

11001110 01110011 01101010 
00111100 10010100 11100111 
11000101 10100001 11100001 

00001111 01010110 00100000 
01000010 01011000 11111010 
00011001 00100111 01010110 

01100111 11001001 00010010 
01110101 00001110 11100100 
11010001 11111000 01010100 

10111101 10110000 00100100 
11000100 01111010 01010011 
11101101 00011100 11010110 

01111001 11111101 01000100 
00101001 00100101 00101101 
00010111 11110000 00111000 


11001101 00000011 00101111 
01001111 10100000 10101010 
10011101 11110000 00000000 

01101110 10110110 01011110 
11100100 10110011 11111010 
00011001 10001110 11001011 

01011111 01100100 10000111 
01000110 01011000 11110101 
01111011 11110010 00101110 

11001110 01110011 01101010 
00111100 10010100 11100111 
11000101 10100001 11100001 

00001111 01010110 00100000 
01000010 01011000 11111010 
00011001 00100111 01010110 

01100111 11001001 00010010 
01110101 00001110 11100100 
11010001 11111000 01010100 

10111101 10110000 00100100 
11000100 01111010 01010011 
11101101 00011100 11010110 

01111001 11111101 01000100 
00101001 00100101 00101101 
00010111 11110000 00111000 


11001101 00000011 00101111 
01001111 10100000 10101010 
10011101 11110000 00000000 

01101110 10110110 01011110 
11100100 10110011 11111010 
00011001 10001110 11001011 

01011111 01100100 10000111 
01000110 01011000 11110101 
01111011 11110010 00101110 

11001110 01110011 01101010 
00111100 10010100 11100111 
11000101 10100001 11100001 

00001111 01010110 00100000 
01000010 01011000 11111010 
00011001 00100111 01010110 

01100111 11001001 00010010 
01110101 00001110 11100100 
11010001 11111000 01010100 

10111101 10110000 00100100 
11000100 01111010 01010011 
11101101 00011100 11010110 

01111001 11111101 01000100 
00101001 00100101 00101101 
00010111 11110000 00111000 


11001101 00000011 00101111 
01001111 10100000 10101010 
10011101 11110000 00000000 

01101110 10110110 01011110 
11100100 10110011 11111010 
00011001 10001110 11001011 

01011111 01100100 10000111 
01000110 01011000 11110101 
01111011 11110010 00101110 

11001110 01110011 01101010 
00111100 10010100 11100111 
11000101 10100001 11100001 

00001111 01010110 00100000 
01000010 01011000 11111010 
00011001 00100111 01010110 

01100111 11001001 00010010 
01110101 00001110 11100100 
11010001 11111000 01010100 

10111101 10110000 00100100 
11000100 01111010 01010011 
11101101 00011100 11010110 

01111001 11111101 01000100 
00101001 00100101 00101101 
00010111 11110000 00111000 



11001101 00000011 00101111 
01001111 10100000 10101010 
10011101 11110000 00000000 

01101110 10110110 01011110 
11100100 10110011 11111010 
00011001 10001110 11001011 

01011111 01100100 10000111 
01000110 01011000 11110101 
01111011 11110010 00101110 

11001110 01110011 01101010 
00111100 10010100 11100111 
11000101 10100001 11100001 

00001111 01010110 00100000 
01000010 01011000 11111010 
00011001 00100111 01010110 

01100111 11001001 00010010 
01110101 00001110 11100100 
11010001 11111000 01010100 

10111101 10110000 00100100 
11000100 01111010 01010011 
11101101 00011100 11010110 

01111001 11111101 01000100 
00101001 00100101 00101101 
00010111 11110000 00111000 


11001101 00000011 00101111 
01001111 10100000 10101010 
10011101 11110000 00000000 

01101110 10110110 01011110 
11100100 10110011 11111010 
00011001 10001110 11001011 

01011111 01100100 10000111 
01000110 01011000 11110101 
01111011 11110010 00101110 

11001110 01110011 01101010 
00111100 10010100 11100111 
11000101 10100001 11100001 

00001111 01010110 00100000 
01000010 01011000 11111010 
00011001 00100111 01010110 

01100111 11001001 00010010 
01110101 00001110 11100100 
11010001 11111000 01010100 

10111101 10110000 00100100 
11000100 01111010 01010011 
11101101 00011100 11010110 

01111001 11111101 01000100 
00101001 00100101 00101101 
00010111 11110000 00111000 


11001101 00000011 00101111 
01001111 10100000 10101010 
10011101 11110000 00000000 

01101110 10110110 01011110 
11100100 10110011 11111010 
00011001 10001110 11001011 

01011111 01100100 10000111 
01000110 01011000 11110101 
01111011 11110010 00101110 

11001110 01110011 01101010 
00111100 10010100 11100111 
11000101 10100001 11100001 

00001111 01010110 00100000 
01000010 01011000 11111010 
00011001 00100111 01010110 

01100111 11001001 00010010 
01110101 00001110 11100100 
11010001 11111000 01010100 

10111101 10110000 00100100 
11000100 01111010 01010011 
11101101 00011100 11010110 

01111001 11111101 01000100 
00101001 00100101 00101101 
00010111 11110000 00111000 


11001101 00000011 00101111 
01001111 10100000 10101010 
10011101 11110000 00000000 

01101110 10110110 01011110 
11100100 10110011 11111010 
00011001 10001110 11001011 

01011111 01100100 10000111 
01000110 01011000 11110101 
01111011 11110010 00101110 

11001110 01110011 01101010 
00111100 10010100 11100111 
11000101 10100001 11100001 

00001111 01010110 00100000 
01000010 01011000 11111010 
00011001 00100111 01010110 

01100111 11001001 00010010 
01110101 00001110 11100100 
11010001 11111000 01010100 

10111101 10110000 00100100 
11000100 01111010 01010011 
11101101 00011100 11010110 

01111001 11111101 01000100 
00101001 00100101 00101101 
00010111 11110000 00111000 




11000010 11001001 11011101 
11011101 11010111 11000011 
11100010 00110111 01100101 

10110100 10010011 01010001 
01001010 11111101 00101110 
00111110 01100101 10101100 

00010010 10000010 00110010 
11100000 01101001 10111011 
01101100 01100011 00001010 

01110001 00111110 10001100 
10101110 00100100 11011001 
11101110 11000101 00110110 

11110000 01101110 11110100 
11010110 10001000 00011111 
00110001 11011010 11001100 

11010100 00000000 01110011 
11000001 11100100 10100010 
01000010 11100011 01101110 

10000010 10010101 10001101 
01100101 01100010 11101111 
00111100 01111100 10000011 

00001001 01011000 01110001 
10010110 10101010 11010110 
11000000 01101010 11011111 


11000010 11001001 11011101 
11011101 11010111 11000011 
11100010 00110111 01100101 

10110100 10010011 01010001 
01001010 11111101 00101110 
00111110 01100101 10101100 

00010010 10000010 00110010 
11100000 01101001 10111011 
01101100 01100011 00001010 

01110001 00111110 10001100 
10101110 00100100 11011001 
11101110 11000101 00110110 

11110000 01101110 11110100 
11010110 10001000 00011111 
00110001 11011010 11001100 

11010100 00000000 01110011 
11000001 11100100 10100010 
01000010 11100011 01101110 

10000010 10010101 10001101 
01100101 01100010 11101111 
00111100 01111100 10000011 

00001001 01011000 01110001 
10010110 10101010 11010110 
11000000 01101010 11011111 


11000010 11001001 11011101 
11011101 11010111 11000011 
11100010 00110111 01100101 

10110100 10010011 01010001 
01001010 11111101 00101110 
00111110 01100101 10101100 

00010010 10000010 00110010 
11100000 01101001 10111011 
01101100 01100011 00001010 

01110001 00111110 10001100 
10101110 00100100 11011001 
11101110 11000101 00110110 

11110000 01101110 11110100 
11010110 10001000 00011111 
00110001 11011010 11001100 

11010100 00000000 01110011 
11000001 11100100 10100010 
01000010 11100011 01101110 

10000010 10010101 10001101 
01100101 01100010 11101111 
00111100 01111100 10000011 

00001001 01011000 01110001 
10010110 10101010 11010110 
11000000 01101010 11011111 


11000010 11001001 11011101 
11011101 11010111 11000011 
11100010 00110111 01100101 

10110100 10010011 01010001 
01001010 11111101 00101110 
00111110 01100101 10101100 

00010010 10000010 00110010 
11100000 01101001 10111011 
01101100 01100011 00001010 

01110001 00111110 10001100 
10101110 00100100 11011001 
11101110 11000101 00110110 

11110000 01101110 11110100 
11010110 10001000 00011111 
00110001 11011010 11001100 

11010100 00000000 01110011 
11000001 11100100 10100010 
01000010 11100011 01101110 

10000010 10010101 10001101 
01100101 01100010 11101111 
00111100 01111100 10000011 

00001001 01011000 01110001 
10010110 10101010 11010110 
11000000 01101010 11011111 



11000010 11001001 11011101 
11011101 11010111 11000011 
11100010 00110111 01100101 

10110100 10010011 01010001 
01001010 11111101 00101110 
00111110 01100101 10101100 

00010010 10000010 00110010 
11100000 01101001 10111011 
01101100 01100011 00001010 

01110001 00111110 10001100 
10101110 00100100 11011001 
11101110 11000101 00110110 

11110000 01101110 11110100 
11010110 10001000 00011111 
00110001 11011010 11001100 

11010100 00000000 01110011 
11000001 11100100 10100010 
01000010 11100011 01101110 

10000010 10010101 10001101 
01100101 01100010 11101111 
00111100 01111100 10000011 

00001001 01011000 01110001 
10010110 10101010 11010110 
11000000 01101010 11011111 


11000010 11001001 11011101 
11011101 11010111 11000011 
11100010 00110111 01100101 

10110100 10010011 01010001 
01001010 11111101 00101110 
00111110 01100101 10101100 

00010010 10000010 00110010 
11100000 01101001 10111011 
01101100 01100011 00001010 

01110001 00111110 10001100 
10101110 00100100 11011001 
11101110 11000101 00110110 

11110000 01101110 11110100 
11010110 10001000 00011111 
00110001 11011010 11001100 

11010100 00000000 01110011 
11000001 11100100 10100010 
01000010 11100011 01101110 

10000010 10010101 10001101 
01100101 01100010 11101111 
00111100 01111100 10000011 

00001001 01011000 01110001 
10010110 10101010 11010110 
11000000 01101010 11011111 


11000010 11001001 11011101 
11011101 11010111 11000011 
11100010 00110111 01100101 

10110100 10010011 01010001 
01001010 11111101 00101110 
00111110 01100101 10101100 

00010010 10000010 00110010 
11100000 01101001 10111011 
01101100 01100011 00001010 

01110001 00111110 10001100 
10101110 00100100 11011001 
11101110 11000101 00110110 

11110000 01101110 11110100 
11010110 10001000 00011111 
00110001 11011010 11001100 

11010100 00000000 01110011 
11000001 11100100 10100010 
01000010 11100011 01101110 

10000010 10010101 10001101 
01100101 01100010 11101111 
00111100 01111100 10000011 

00001001 01011000 01110001 
10010110 10101010 11010110 
11000000 01101010 11011111 


11000010 11001001 11011101 
11011101 11010111 11000011 
11100010 00110111 01100101 

10110100 10010011 01010001 
01001010 11111101 00101110 
00111110 01100101 10101100 

00010010 10000010 00110010 
11100000 01101001 10111011 
01101100 01100011 00001010 

01110001 00111110 10001100 
10101110 00100100 11011001 
11101110 11000101 00110110 

11110000 01101110 11110100 
11010110 10001000 00011111 
00110001 11011010 11001100 

11010100 00000000 01110011 
11000001 11100100 10100010 
01000010 11100011 01101110 

10000010 10010101 10001101 
01100101 01100010 11101111 
00111100 01111100 10000011 

00001001 01011000 01110001 
10010110 10101010 11010110 
11000000 01101010 11011111 



11000010 11001001 11011101 
11011101 11010111 11000011 
11100010 00110111 01100101 

10110100 10010011 01010001 
01001010 11111101 00101110 
00111110 01100101 10101100 

00010010 10000010 00110010 
11100000 01101001 10111011 
01101100 01100011 00001010 

01110001 00111110 10001100 
10101110 00100100 11011001 
11101110 11000101 00110110 

11110000 01101110 11110100 
11010110 10001000 00011111 
00110001 11011010 11001100 

11010100 00000000 01110011 
11000001 11100100 10100010 
01000010 11100011 01101110 

10000010 10010101 10001101 
01100101 01100010 11101111 
00111100 01111100 10000011 

00001001 01011000 01110001 
10010110 10101010 11010110 
11000000 01101010 11011111 


11000010 11001001 11011101 
11011101 11010111 11000011 
11100010 00110111 01100101 

10110100 10010011 01010001 
01001010 11111101 00101110 
00111110 01100101 10101100 

00010010 10000010 00110010 
11100000 01101001 10111011 
01101100 01100011 00001010 

01110001 00111110 10001100 
10101110 00100100 11011001 
11101110 11000101 00110110 

11110000 01101110 11110100 
11010110 10001000 00011111 
00110001 11011010 11001100 

11010100 00000000 01110011 
11000001 11100100 10100010 
01000010 11100011 01101110 

10000010 10010101 10001101 
01100101 01100010 11101111 
00111100 01111100 10000011 

00001001 01011000 01110001 
10010110 10101010 11010110 
11000000 01101010 11011111 


11000010 11001001 11011101 
11011101 11010111 11000011 
11100010 00110111 01100101 

10110100 10010011 01010001 
01001010 11111101 00101110 
00111110 01100101 10101100 

00010010 10000010 00110010 
11100000 01101001 10111011 
01101100 01100011 00001010 

01110001 00111110 10001100 
10101110 00100100 11011001 
11101110 11000101 00110110 

11110000 01101110 11110100 
11010110 10001000 00011111 
00110001 11011010 11001100 

11010100 00000000 01110011 
11000001 11100100 10100010 
01000010 11100011 01101110 

10000010 10010101 10001101 
01100101 01100010 11101111 
00111100 01111100 10000011 

00001001 01011000 01110001 
10010110 10101010 11010110 
11000000 01101010 11011111 


11000010 11001001 11011101 
11011101 11010111 11000011 
11100010 00110111 01100101 

10110100 10010011 01010001 
01001010 11111101 00101110 
00111110 01100101 10101100 

00010010 10000010 00110010 
11100000 01101001 10111011 
01101100 01100011 00001010 

01110001 00111110 10001100 
10101110 00100100 11011001 
11101110 11000101 00110110 

11110000 01101110 11110100 
11010110 10001000 00011111 
00110001 11011010 11001100 

11010100 00000000 01110011 
11000001 11100100 10100010 
01000010 11100011 01101110 

10000010 10010101 10001101 
01100101 01100010 11101111 
00111100 01111100 10000011 

00001001 01011000 01110001 
10010110 10101010 11010110 
11000000 01101010 11011111 



11000010 11001001 11011101 
11011101 11010111 11000011 
11100010 00110111 01100101 

10110100 10010011 01010001 
01001010 11111101 00101110 
00111110 01100101 10101100 

00010010 10000010 00110010 
11100000 01101001 10111011 
01101100 01100011 00001010 

01110001 00111110 10001100 
10101110 00100100 11011001 
11101110 11000101 00110110 

11110000 01101110 11110100 
11010110 10001000 00011111 
00110001 11011010 11001100 

11010100 00000000 01110011 
11000001 11100100 10100010 
01000010 11100011 01101110 

10000010 10010101 10001101 
01100101 01100010 11101111 
00111100 01111100 10000011 

00001001 01011000 01110001 
10010110 10101010 11010110 
11000000 01101010 11011111 


11000010 11001001 11011101 
11011101 11010111 11000011 
11100010 00110111 01100101 

10110100 10010011 01010001 
01001010 11111101 00101110 
00111110 01100101 10101100 

00010010 10000010 00110010 
11100000 01101001 10111011 
01101100 01100011 00001010 

01110001 00111110 10001100 
10101110 00100100 11011001 
11101110 11000101 00110110 

11110000 01101110 11110100 
11010110 10001000 00011111 
00110001 11011010 11001100 

11010100 00000000 01110011 
11000001 11100100 10100010 
01000010 11100011 01101110 

10000010 10010101 10001101 
01100101 01100010 11101111 
00111100 01111100 10000011 

00001001 01011000 01110001 
10010110 10101010 11010110 
11000000 01101010 11011111 


11000010 11001001 11011101 
11011101 11010111 11000011 
11100010 00110111 01100101 

10110100 10010011 01010001 
01001010 11111101 00101110 
00111110 01100101 10101100 

00010010 10000010 00110010 
11100000 01101001 10111011 
01101100 01100011 00001010 

01110001 00111110 10001100 
10101110 00100100 11011001 
11101110 11000101 00110110 

11110000 01101110 11110100 
11010110 10001000 00011111 
00110001 11011010 11001100 

11010100 00000000 01110011 
11000001 11100100 10100010 
01000010 11100011 01101110 

10000010 10010101 10001101 
01100101 01100010 11101111 
00111100 01111100 10000011 

00001001 01011000 01110001 
10010110 10101010 11010110 
11000000 01101010 11011111 


11000010 11001001 11011101 
11011101 11010111 11000011 
11100010 00110111 01100101 

10110100 10010011 01010001 
01001010 11111101 00101110 
00111110 01100101 10101100 

00010010 10000010 00110010 
11100000 01101001 10111011 
01101100 01100011 00001010 

01110001 00111110 10001100 
10101110 00100100 11011001 
11101110 11000101 00110110 

11110000 01101110 11110100 
11010110 10001000 00011111 
00110001 11011010 11001100 

11010100 00000000 01110011 
11000001 11100100 10100010 
01000010 11100011 01101110 

10000010 10010101 10001101 
01100101 01100010 11101111 
00111100 01111100 10000011 

00001001 01011000 01110001 
10010110 10101010 11010110 
11000000 01101010 11011111 



11000010 11001001 11011101 
11011101 11010111 11000011 
11100010 00110111 01100101 

10110100 10010011 01010001 
01001010 11111101 00101110 
00111110 01100101 10101100 

00010010 10000010 00110010 
11100000 01101001 10111011 
01101100 01100011 00001010 

01110001 00111110 10001100 
10101110 00100100 11011001 
11101110 11000101 00110110 

11110000 01101110 11110100 
11010110 10001000 00011111 
00110001 11011010 11001100 

11010100 00000000 01110011 
11000001 11100100 10100010 
01000010 11100011 01101110 

10000010 10010101 10001101 
01100101 01100010 11101111 
00111100 01111100 10000011 

00001001 01011000 01110001 
10010110 10101010 11010110 
11000000 01101010 11011111 


11000010 11001001 11011101 
11011101 11010111 11000011 
11100010 00110111 01100101 

10110100 10010011 01010001 
01001010 11111101 00101110 
00111110 01100101 10101100 

00010010 10000010 00110010 
11100000 01101001 10111011 
01101100 01100011 00001010 

01110001 00111110 10001100 
10101110 00100100 11011001 
11101110 11000101 00110110 

11110000 01101110 11110100 
11010110 10001000 00011111 
00110001 11011010 11001100 

11010100 00000000 01110011 
11000001 11100100 10100010 
01000010 11100011 01101110 

10000010 10010101 10001101 
01100101 01100010 11101111 
00111100 01111100 10000011 

00001001 01011000 01110001 
10010110 10101010 11010110 
11000000 01101010 11011111 


11000010 11001001 11011101 
11011101 11010111 11000011 
11100010 00110111 01100101 

10110100 10010011 01010001 
01001010 11111101 00101110 
00111110 01100101 10101100 

00010010 10000010 00110010 
11100000 01101001 10111011 
01101100 01100011 00001010 

01110001 00111110 10001100 
10101110 00100100 11011001 
11101110 11000101 00110110 

11110000 01101110 11110100 
11010110 10001000 00011111 
00110001 11011010 11001100 

11010100 00000000 01110011 
11000001 11100100 10100010 
01000010 11100011 01101110 

10000010 10010101 10001101 
01100101 01100010 11101111 
00111100 01111100 10000011 

00001001 01011000 01110001 
10010110 10101010 11010110 
11000000 01101010 11011111 


11000010 11001001 11011101 
11011101 11010111 11000011 
11100010 00110111 01100101 

10110100 10010011 01010001 
01001010 11111101 00101110 
00111110 01100101 10101100 

00010010 10000010 00110010 
11100000 01101001 10111011 
01101100 01100011 00001010 

01110001 00111110 10001100 
10101110 00100100 11011001 
11101110 11000101 00110110 

11110000 01101110 11110100 
11010110 10001000 00011111 
00110001 11011010 11001100 

11010100 00000000 01110011 
11000001 11100100 10100010 
01000010 11100011 01101110 

10000010 10010101 10001101 
01100101 01100010 11101111 
00111100 01111100 10000011 

00001001 01011000 01110001 
10010110 10101010 11010110 
11000000 01101010 11011111 



11000010 11001001 11011101 
11011101 11010111 11000011 
11100010 00110111 01100101 

10110100 10010011 01010001 
01001010 11111101 00101110 
00111110 01100101 10101100 

00010010 10000010 00110010 
11100000 01101001 10111011 
01101100 01100011 00001010 

01110001 00111110 10001100 
10101110 00100100 11011001 
11101110 11000101 00110110 

11110000 01101110 11110100 
11010110 10001000 00011111 
00110001 11011010 11001100 

11010100 00000000 01110011 
11000001 11100100 10100010 
01000010 11100011 01101110 

10000010 10010101 10001101 
01100101 01100010 11101111 
00111100 01111100 10000011 

00001001 01011000 01110001 
10010110 10101010 11010110 
11000000 01101010 11011111 


11000010 11001001 11011101 
11011101 11010111 11000011 
11100010 00110111 01100101 

10110100 10010011 01010001 
01001010 11111101 00101110 
00111110 01100101 10101100 

00010010 10000010 00110010 
11100000 01101001 10111011 
01101100 01100011 00001010 

01110001 00111110 10001100 
10101110 00100100 11011001 
11101110 11000101 00110110 

11110000 01101110 11110100 
11010110 10001000 00011111 
00110001 11011010 11001100 

11010100 00000000 01110011 
11000001 11100100 10100010 
01000010 11100011 01101110 

10000010 10010101 10001101 
01100101 01100010 11101111 
00111100 01111100 10000011 

00001001 01011000 01110001 
10010110 10101010 11010110 
11000000 01101010 11011111 


11000010 11001001 11011101 
11011101 11010111 11000011 
11100010 00110111 01100101 

10110100 10010011 01010001 
01001010 11111101 00101110 
00111110 01100101 10101100 

00010010 10000010 00110010 
11100000 01101001 10111011 
01101100 01100011 00001010 

01110001 00111110 10001100 
10101110 00100100 11011001 
11101110 11000101 00110110 

11110000 01101110 11110100 
11010110 10001000 00011111 
00110001 11011010 11001100 

11010100 00000000 01110011 
11000001 11100100 10100010 
01000010 11100011 01101110 

10000010 10010101 10001101 
01100101 01100010 11101111 
00111100 01111100 10000011 

00001001 01011000 01110001 
10010110 10101010 11010110 
11000000 01101010 11011111 


11000010 11001001 11011101 
11011101 11010111 11000011 
11100010 00110111 01100101 

10110100 10010011 01010001 
01001010 11111101 00101110 
00111110 01100101 10101100 

00010010 10000010 00110010 
11100000 01101001 10111011 
01101100 01100011 00001010 

01110001 00111110 10001100 
10101110 00100100 11011001 
11101110 11000101 00110110 

11110000 01101110 11110100 
11010110 10001000 00011111 
00110001 11011010 11001100 

11010100 00000000 01110011 
11000001 11100100 10100010 
01000010 11100011 01101110 

10000010 10010101 10001101 
01100101 01100010 11101111 
00111100 01111100 10000011 

00001001 01011000 01110001 
10010110 10101010 11010110 
11000000 01101010 11011111 



11000010 11001001 11011101 
11011101 11010111 11000011 
11100010 00110111 01100101 

10110100 10010011 01010001 
01001010 11111101 00101110 
00111110 01100101 10101100 

00010010 10000010 00110010 
11100000 01101001 10111011 
01101100 01100011 00001010 

01110001 00111110 10001100 
10101110 00100100 11011001 
11101110 11000101 00110110 

11110000 01101110 11110100 
11010110 10001000 00011111 
00110001 11011010 11001100 

11010100 00000000 01110011 
11000001 11100100 10100010 
01000010 11100011 01101110 

10000010 10010101 10001101 
01100101 01100010 11101111 
00111100 01111100 10000011 

00001001 01011000 01110001 
10010110 10101010 11010110 
11000000 01101010 11011111 


11000010 11001001 11011101 
11011101 11010111 11000011 
11100010 00110111 01100101 

10110100 10010011 01010001 
01001010 11111101 00101110 
00111110 01100101 10101100 

00010010 10000010 00110010 
11100000 01101001 10111011 
01101100 01100011 00001010 

01110001 00111110 10001100 
10101110 00100100 11011001 
11101110 11000101 00110110 

11110000 01101110 11110100 
11010110 10001000 00011111 
00110001 11011010 11001100 

11010100 00000000 01110011 
11000001 11100100 10100010 
01000010 11100011 01101110 

10000010 10010101 10001101 
01100101 01100010 11101111 
00111100 01111100 10000011 

00001001 01011000 01110001 
10010110 10101010 11010110 
11000000 01101010 11011111 


11000010 11001001 11011101 
11011101 11010111 11000011 
11100010 00110111 01100101 

10110100 10010011 01010001 
01001010 11111101 00101110 
00111110 01100101 10101100 

00010010 10000010 00110010 
11100000 01101001 10111011 
01101100 01100011 00001010 

01110001 00111110 10001100 
10101110 00100100 11011001 
11101110 11000101 00110110 

11110000 01101110 11110100 
11010110 10001000 00011111 
00110001 11011010 11001100 

11010100 00000000 01110011 
11000001 11100100 10100010 
01000010 11100011 01101110 

10000010 10010101 10001101 
01100101 01100010 11101111 
00111100 01111100 10000011 

00001001 01011000 01110001 
10010110 10101010 11010110 
11000000 01101010 11011111 


11000010 11001001 11011101 
11011101 11010111 11000011 
11100010 00110111 01100101 

10110100 10010011 01010001 
01001010 11111101 00101110 
00111110 01100101 10101100 

00010010 10000010 00110010 
11100000 01101001 10111011 
01101100 01100011 00001010 

01110001 00111110 10001100 
10101110 00100100 11011001 
11101110 11000101 00110110 

11110000 01101110 11110100 
11010110 10001000 00011111 
00110001 11011010 11001100 

11010100 00000000 01110011 
11000001 11100100 10100010 
01000010 11100011 01101110 

10000010 10010101 10001101 
01100101 01100010 11101111 
00111100 01111100 10000011 

00001001 01011000 01110001 
10010110 10101010 11010110 
11000000 01101010 11011111 



11000010 11001001 11011101 
11011101 11010111 11000011 
11100010 00110111 01100101 

10110100 10010011 01010001 
01001010 11111101 00101110 
00111110 01100101 10101100 

00010010 10000010 00110010 
11100000 01101001 10111011 
01101100 01100011 00001010 

01110001 00111110 10001100 
10101110 00100100 11011001 
11101110 11000101 00110110 

11110000 01101110 11110100 
11010110 10001000 00011111 
00110001 11011010 11001100 

11010100 00000000 01110011 
11000001 11100100 10100010 
01000010 11100011 01101110 

10000010 10010101 10001101 
01100101 01100010 11101111 
00111100 01111100 10000011 

00001001 01011000 01110001 
10010110 10101010 11010110 
11000000 01101010 11011111 


11000010 11001001 11011101 
11011101 11010111 11000011 
11100010 00110111 01100101 

10110100 10010011 01010001 
01001010 11111101 00101110 
00111110 01100101 10101100 

00010010 10000010 00110010 
11100000 01101001 10111011 
01101100 01100011 00001010 

01110001 00111110 10001100 
10101110 00100100 11011001 
11101110 11000101 00110110 

11110000 01101110 11110100 
11010110 10001000 00011111 
00110001 11011010 11001100 

11010100 00000000 01110011 
11000001 11100100 10100010 
01000010 11100011 01101110 

10000010 10010101 10001101 
01100101 01100010 11101111 
00111100 01111100 10000011 

00001001 01011000 01110001 
10010110 10101010 11010110 
11000000 01101010 11011111 


11000010 11001001 11011101 
11011101 11010111 11000011 
11100010 00110111 01100101 

10110100 10010011 01010001 
01001010 11111101 00101110 
00111110 01100101 10101100 

00010010 10000010 00110010 
11100000 01101001 10111011 
01101100 01100011 00001010 

01110001 00111110 10001100 
10101110 00100100 11011001 
11101110 11000101 00110110 

11110000 01101110 11110100 
11010110 10001000 00011111 
00110001 11011010 11001100 

11010100 00000000 01110011 
11000001 11100100 10100010 
01000010 11100011 01101110 

10000010 10010101 10001101 
01100101 01100010 11101111 
00111100 01111100 10000011 

00001001 01011000 01110001 
10010110 10101010 11010110 
11000000 01101010 11011111 


11000010 11001001 11011101 
11011101 11010111 11000011 
11100010 00110111 01100101 

10110100 10010011 01010001 
01001010 11111101 00101110 
00111110 01100101 10101100 

00010010 10000010 00110010 
11100000 01101001 10111011 
01101100 01100011 00001010 

01110001 00111110 10001100 
10101110 00100100 11011001 
11101110 11000101 00110110 

11110000 01101110 11110100 
11010110 10001000 00011111 
00110001 11011010 11001100 

11010100 00000000 01110011 
11000001 11100100 10100010 
01000010 11100011 01101110 

10000010 10010101 10001101 
01100101 01100010 11101111 
00111100 01111100 10000011 

00001001 01011000 01110001 
10010110 10101010 11010110 
11000000 01101010 11011111 



11000010 11001001 11011101 
11011101 11010111 11000011 
11100010 00110111 01100101 

10110100 10010011 01010001 
01001010 11111101 00101110 
00111110 01100101 10101100 

00010010 10000010 00110010 
11100000 01101001 10111011 
01101100 01100011 00001010 

01110001 00111110 10001100 
10101110 00100100 11011001 
11101110 11000101 00110110 

11110000 01101110 11110100 
11010110 10001000 00011111 
00110001 11011010 11001100 

11010100 00000000 01110011 
11000001 11100100 10100010 
01000010 11100011 01101110 

10000010 10010101 10001101 
01100101 01100010 11101111 
00111100 01111100 10000011 

00001001 01011000 01110001 
10010110 10101010 11010110 
11000000 01101010 11011111 


11000010 11001001 11011101 
11011101 11010111 11000011 
11100010 00110111 01100101 

10110100 10010011 01010001 
01001010 11111101 00101110 
00111110 01100101 10101100 

00010010 10000010 00110010 
11100000 01101001 10111011 
01101100 01100011 00001010 

01110001 00111110 10001100 
10101110 00100100 11011001 
11101110 11000101 00110110 

11110000 01101110 11110100 
11010110 10001000 00011111 
00110001 11011010 11001100 

11010100 00000000 01110011 
11000001 11100100 10100010 
01000010 11100011 01101110 

10000010 10010101 10001101 
01100101 01100010 11101111 
00111100 01111100 10000011 

00001001 01011000 01110001 
10010110 10101010 11010110 
11000000 01101010 11011111 


11000010 11001001 11011101 
11011101 11010111 11000011 
11100010 00110111 01100101 

10110100 10010011 01010001 
01001010 11111101 00101110 
00111110 01100101 10101100 

00010010 10000010 00110010 
11100000 01101001 10111011 
01101100 01100011 00001010 

01110001 00111110 10001100 
10101110 00100100 11011001 
11101110 11000101 00110110 

11110000 01101110 11110100 
11010110 10001000 00011111 
00110001 11011010 11001100 

11010100 00000000 01110011 
11000001 11100100 10100010 
01000010 11100011 01101110 

10000010 10010101 10001101 
01100101 01100010 11101111 
00111100 01111100 10000011 

00001001 01011000 01110001 
10010110 10101010 11010110 
11000000 01101010 11011111 


11000010 11001001 11011101 
11011101 11010111 11000011 
11100010 00110111 01100101 

10110100 10010011 01010001 
01001010 11111101 00101110 
00111110 01100101 10101100 

00010010 10000010 00110010 
11100000 01101001 10111011 
01101100 01100011 00001010 

01110001 00111110 10001100 
10101110 00100100 11011001 
11101110 11000101 00110110 

11110000 01101110 11110100 
11010110 10001000 00011111 
00110001 11011010 11001100 

11010100 00000000 01110011 
11000001 11100100 10100010 
01000010 11100011 01101110 

10000010 10010101 10001101 
01100101 01100010 11101111 
00111100 01111100 10000011 

00001001 01011000 01110001 
10010110 10101010 11010110 
11000000 01101010 11011111 



11000010 11001001 11011101 
11011101 11010111 11000011 
11100010 00110111 01100101 

10110100 10010011 01010001 
01001010 11111101 00101110 
00111110 01100101 10101100 

00010010 10000010 00110010 
11100000 01101001 10111011 
01101100 01100011 00001010 

01110001 00111110 10001100 
10101110 00100100 11011001 
11101110 11000101 00110110 

11110000 01101110 11110100 
11010110 10001000 00011111 
00110001 11011010 11001100 

11010100 00000000 01110011 
11000001 11100100 10100010 
01000010 11100011 01101110 

10000010 10010101 10001101 
01100101 01100010 11101111 
00111100 01111100 10000011 

00001001 01011000 01110001 
10010110 10101010 11010110 
11000000 01101010 11011111 


11000010 11001001 11011101 
11011101 11010111 11000011 
11100010 00110111 01100101 

10110100 10010011 01010001 
01001010 11111101 00101110 
00111110 01100101 10101100 

00010010 10000010 00110010 
11100000 01101001 10111011 
01101100 01100011 00001010 

01110001 00111110 10001100 
10101110 00100100 11011001 
11101110 11000101 00110110 

11110000 01101110 11110100 
11010110 10001000 00011111 
00110001 11011010 11001100 

11010100 00000000 01110011 
11000001 11100100 10100010 
01000010 11100011 01101110 

10000010 10010101 10001101 
01100101 01100010 11101111 
00111100 01111100 10000011 

00001001 01011000 01110001 
10010110 10101010 11010110 
11000000 01101010 11011111 


11000010 11001001 11011101 
11011101 11010111 11000011 
11100010 00110111 01100101 

10110100 10010011 01010001 
01001010 11111101 00101110 
00111110 01100101 10101100 

00010010 10000010 00110010 
11100000 01101001 10111011 
01101100 01100011 00001010 

01110001 00111110 10001100 
10101110 00100100 11011001 
11101110 11000101 00110110 

11110000 01101110 11110100 
11010110 10001000 00011111 
00110001 11011010 11001100 

11010100 00000000 01110011 
11000001 11100100 10100010 
01000010 11100011 01101110 

10000010 10010101 10001101 
01100101 01100010 11101111 
00111100 01111100 10000011 

00001001 01011000 01110001 
10010110 10101010 11010110 
11000000 01101010 11011111 


11000010 11001001 11011101 
11011101 11010111 11000011 
11100010 00110111 01100101 

10110100 10010011 01010001 
01001010 11111101 00101110 
00111110 01100101 10101100 

00010010 10000010 00110010 
11100000 01101001 10111011 
01101100 01100011 00001010 

01110001 00111110 10001100 
10101110 00100100 11011001 
11101110 11000101 00110110 

11110000 01101110 11110100 
11010110 10001000 00011111 
00110001 11011010 11001100 

11010100 00000000 01110011 
11000001 11100100 10100010 
01000010 11100011 01101110 

10000010 10010101 10001101 
01100101 01100010 11101111 
00111100 01111100 10000011 

00001001 01011000 01110001 
10010110 10101010 11010110 
11000000 01101010 11011111 



11000010 11001001 11011101 
11011101 11010111 11000011 
11100010 00110111 01100101 

10110100 10010011 01010001 
01001010 11111101 00101110 
00111110 01100101 10101100 

00010010 10000010 00110010 
11100000 01101001 10111011 
01101100 01100011 00001010 

01110001 00111110 10001100 
10101110 00100100 11011001 
11101110 11000101 00110110 

11110000 01101110 11110100 
11010110 10001000 00011111 
00110001 11011010 11001100 

11010100 00000000 01110011 
11000001 11100100 10100010 
01000010 11100011 01101110 

10000010 10010101 10001101 
01100101 01100010 11101111 
00111100 01111100 10000011 

00001001 01011000 01110001 
10010110 10101010 11010110 
11000000 01101010 11011111 


11000010 11001001 11011101 
11011101 11010111 11000011 
11100010 00110111 01100101 

10110100 10010011 01010001 
01001010 11111101 00101110 
00111110 01100101 10101100 

00010010 10000010 00110010 
11100000 01101001 10111011 
01101100 01100011 00001010 

01110001 00111110 10001100 
10101110 00100100 11011001 
11101110 11000101 00110110 

11110000 01101110 11110100 
11010110 10001000 00011111 
00110001 11011010 11001100 

11010100 00000000 01110011 
11000001 11100100 10100010 
01000010 11100011 01101110 

10000010 10010101 10001101 
01100101 01100010 11101111 
00111100 01111100 10000011 

00001001 01011000 01110001 
10010110 10101010 11010110 
11000000 01101010 11011111 


11000010 11001001 11011101 
11011101 11010111 11000011 
11100010 00110111 01100101 

10110100 10010011 01010001 
01001010 11111101 00101110 
00111110 01100101 10101100 

00010010 10000010 00110010 
11100000 01101001 10111011 
01101100 01100011 00001010 

01110001 00111110 10001100 
10101110 00100100 11011001 
11101110 11000101 00110110 

11110000 01101110 11110100 
11010110 10001000 00011111 
00110001 11011010 11001100 

11010100 00000000 01110011 
11000001 11100100 10100010 
01000010 11100011 01101110 

